#version: 0.2 - Trained by `huggingface/tokenizers`
č Ċ
Ġ t
h e
Ġ a
Ġ s
o u
Ġ m
Ġ w
i n
h a
r e
Ġ b
Ġt he
n d
i s
l l
Ġ f
e r
Ġ l
Ġ I
i t
Ġ d
o r
Ġt h
Ġ n
Ġ c
o n
a r
v e
ha t
m e
Ġ T
Ġt o
s e
Ġ he
o t
Ġ h
a n
Ġ p
Ġ o
Ġ y
Ġa nd
s t
Ġ A
Ġ g
in g
Ġb e
o w
Ġy ou
e n
Ġo f
e t
a t
a y
Ġ R
o me
Ġ in
l e
Ġ W
' s
Ġm y
Ġm e
u r
Ġ is
g h
it h
u t
c h
c e
a d
Ġ ha
Ġ M
Ġ S
l d
Ġt hat
i r
E T
Ġth ou
Ġn ot
e s
Ġ e
Ġ B
Ġ C
U L
o o
Ġw ith
gh t
i ll
Ġ O
n t
ĠA nd
e d
r i
Ġf or
o ve
Ġs t
Ġ F
Ġl i
Ġ N
Ġd e
Ġ u
Ġ J
Ġ it
Ġ L
k e
a l
i d
Ġw e
Ġth is
E O
M EO
O MEO
ĠR OMEO
o m
ou r
Ġ H
E N
Ġ P
' d
Ġ E
a in
Ġs o
Ġth y
Ġhe r
Ġl ove
u l
c k
ur se
Ġa s
i ght
l y
on e
he r
I O
Ġw ill
Ġthe e
Ġf a
ĠT he
i m
o re
v er
I ET
Ġs ha
UL IET
ĠJ ULIET
a s
en t
Ġ k
oo d
ou ld
ome o
e ll
Ġa n
Ġh is
ĠR omeo
ĠL A
r a
ĠT h
Ġ G
R I
A P
ĠC AP
UL ET
ĠCAP ULET
e ar
h i
Ġha ve
ĠN urse
at h
e a
Ġ '
Ġs he
Ġb ut
ar t
Ġh im
r u
i f
Ġ re
Ġs h
Ġs u
Ġd o
a ke
Ġyou r
or d
an t
Ġn o
Ġsha ll
g e
Ġa ll
Ġm an
Ġn e
Ġu p
i l
Ġs e
Ġf r
' ll
Ġp r
ou t
Ġm u
Ġ on
Ġb y
Ġc ome
ĠW hat
A R
E R
Ġ v
Ġw hat
ĠT o
C E
Ġs p
ot h
Ġfr om
a me
h o
nt er
i ve
t er
ou s
ha n
Ġn ight
ĠT hat
in e
O L
Ġw he
Ġs w
V OL
Ġg o
ĠB ut
ĠB EN
VOL IO
ĠBEN VOLIO
u re
a ll
Ġ hat
Ġa r
Ġa t
in d
Ġthe re
ĠE nter
e p
Ġhe re
Ġk n
a st
i e
Ġ D
ĠF RI
ĠFRI AR
C U
T IO
a m
i on
u s
Ġa m
ĠM ER
CU TIO
ĠMER CUTIO
Ġc an
Ġg ood
- -
r ow
t h
U R
Ġde ath
s s
Ġa re
EN CE
ĠLA UR
ĠLAUR ENCE
a ck
Ġs ay
ot her
ad y
a nd
q u
Ġ r
ĠE x
D Y
ĠLA DY
hi ch
a ve
Ġm ore
Ġthe n
se l
ĠF or
al t
g u
r y
ou nd
Ġl et
i c
o d
Ġs ir
Ġn ow
Ġh o
oo k
b alt
i me
y balt
Ġ our
Ġ if
Ġb l
Ġd ay
a re
m b
Ġw ould
or t
Ġto o
at e
a p
Ġm ar
Ġc on
er s
ĠT ybalt
a k
Ġ j
i et
Ġ Y
Ġ or
Ġhat h
a u
f ore
Ġ out
Ġs ome
Ġar t
p p
Ġ one
Ġl ady
Ġde ad
e l
Ġt han
Ġw as
ar d
Ġe y
sel f
e st
e et
Ġthe ir
ri e
ul iet
Ġfa ir
Ġkn ow
f e
n ce
ou se
Ġm ad
Ġthe y
on g
ĠJ uliet
Ġsh ould
h y
m an
Ġm ay
Ġp o
Ġse e
b le
f ul
n g
o se
Ġw or
Ġd is
ĠW he
Ġwe ll
a id
o nd
Ġ qu
Ġa l
Ġs l
in k
Ġthe m
ĠM y
Ġt ime
Ġa g
Ġha st
Ġu n
ent le
Ġsu ch
O N
Ġt ell
Ġd id
es s
ĠH e
Ġl o
Ġy et
ver y
ĠTh ou
gu e
A L
i es
is e
is h
Ġg ive
Ġha nd
Ġmu st
Ġwhe n
AL T
a ge
i re
ĠI s
Ġd oth
Ġc om
Ġp re
Ġup on
c t
o y
Ġt ru
Ġa b
Ġm ake
Ġthe se
Ġl ook
Ġp l
Ġg entle
at ch
ĠC ome
Ġli ke
ĠTh is
Ġsw eet
i o
Ġw ord
er v
Ġli ght
id e
ĠP A
Ġmu ch
Ġag ain
u nt
Ġ en
Ġh ouse
Ġe ar
ĠC ap
ear s
ea k
p s
Ġb r
Ġb re
it e
or n
or row
Ġhe art
ĠA s
at her
ur n
Ġli ve
Ġwe re
il t
Ġwhe re
d e
t a
Ġt w
Ġt ake
Ġm is
Ġw ho
in ce
ĠI n
ĠI t
Ġg one
ir st
Ġe x
ul et
ĠCap ulet
Ġw hich
Ġn urse
Ġc ou
Ġc all
Ġhe ave
ĠS erv
RI S
ĠPA RIS
Ġheave n
e m
o s
he d
Ġw o
Ġb ack
Ġn ame
Ġc l
Ġh ow
ow n
ĠW ith
Ġu s
Ġne w
ĠEx it
ĠWhe re
a w
e unt
Ġ čĊ
er c
it her
an ce
Ġp art
ĠS o
ĠB e
Ġsp eak
ĠEx eunt
Ġmar ri
o st
Ġ ru
Ġf l
me nt
ĠO r
Ġde ar
ra ve
ĠG od
Ġey es
i g
i ck
n e
p e
p er
Ġ U
Ġa w
Ġm en
Ġm ine
Ġf o
on ta
ĠW hich
ĠM onta
ĠO f
ri ar
ra w
ĠServ ant
A M
d ay
r o
Ġ V
ar is
Ġo ld
ing s
ĠB y
Ġst ay
ĠH ow
ĠP aris
ĠG o
ĠY ou
o ld
t is
Ġ other
Ġs c
it y
Ġc h
Ġhe ar
Ġst and
ĠN o
ain t
if e
Ġcome s
ic i
Ġtru e
a le
i le
v ing
w ell
Ġ very
Ġw ilt
in s
Ġf ather
ĠI f
Ġc ha
Ġhe nce
Ġh our
Ġst re
au ght
C EN
a ble
i ce
Ġf ind
an s
ĠA n
ĠW e
ĠS CEN
ĠF irst
Ġli e
ĠN ow
ĠThe n
Ġbl ood
ĠSCEN E
e nd
o ck
Ġ ke
ou gh
Ġw r
Ġl ord
Ġd re
Ġd ie
Ġth ink
ar k
Ġbe d
en ce
ĠW ho
ĠMonta gue
, --
B ALT
G U
Y BALT
f t
n ot
t y
t re
Ġa f
ou d
Ġw it
Ġb an
Ġf ear
Ġl ong
Ġc hi
ve n
me n
ĠT YBALT
ĠA y
Ġg re
ĠW hy
Ġha d
ĠS he
al k
Ġfa ce
ĠThe re
mb er
rie f
GU E
P S
a ce
i ous
o l
w n
ou l
Ġm aid
Ġb oth
Ġd es
Ġyou ng
le ss
ĠS e
ĠS AM
Ġe art
Ġli fe
Ġj oy
ĠHe re
aught er
Ġke ep
Ġchi ld
PS ON
ĠSAM PSON
A GUE
T AGUE
a se
i gh
o p
Ġ ri
Ġt ears
is hed
Ġf rie
Ġd own
ar y
Ġhe ad
Ġbe en
Ġbe fore
ow s
ow er
le s
le ep
ĠM ON
ĠM erc
Ġan y
Ġpr ay
Ġcan not
Ġeart h
Ġfrie nd
ĠMON TAGUE
a g
Ġl ea
it t
Ġc ous
Ġg rave
ĠW ell
ur s
ut io
ĠM us
ĠS t
ĠS ha
our t
Ġfa ll
ea ce
Ġne ed
Ġpr ince
Ġlet ter
Ġho ly
Ġey e
Ġmad e
Ġwor ld
Ġmarri ed
Ġaw ay
Ġdre am
ĠMerc utio
Ġcous in
N CE
a ut
c ond
g er
s w
u ll
Ġs on
Ġs ound
Ġb ri
is on
Ġl e
Ġth ing
Ġc he
Ġbe g
Ġbe aut
le d
ur ch
nt y
ĠP RI
Ġfa ith
ĠG ood
Ġhat e
ak es
ĠPRI NCE
A S
E G
H AS
O R
R EG
d d
e k
h ing
i ed
m p
n ight
Ġm ove
Ġm other
Ġw h
Ġw ar
in t
re l
Ġb id
Ġf riar
Ġc ell
ar s
Ġhe l
Ġo wn
Ġbe t
Ġin t
ET ER
ĠB ALT
oo m
ill ain
Ġli es
Ġli ps
Ġwe ep
ĠP ETER
as s
Ġk ill
ĠTh y
ĠG REG
Ġsu n
Ġne ver
Ġsl ain
Ġtw o
ĠMus ici
HAS AR
OR Y
ĠBALT HASAR
ĠGREG ORY
, '
c c
i er
i ent
m orrow
t u
Ġ ill
Ġt r
Ġs oul
Ġw ife
Ġd aughter
Ġth ose
se s
Ġp ut
et er
ĠR e
ur d
ur t
Ġe nd
Ġk ins
Ġre st
Ġv illain
ĠD o
Ġear ly
Ġru n
ig n
. '
b and
f ort
r ant
u n
u st
w ard
Ġt ill
Ġt alk
Ġs m
Ġw hy
re d
re e
is s
Ġc o
Ġp eace
ĠA h
ĠA l
Ġof f
Ġe re
Ġst r
ĠN ot
Ġu se
Ġu nt
ver s
ord s
ast er
au se
Ġpo or
Ġal one
Ġgentle man
Ġbre ath
Ġch urch
ĠSha ll
Ġhel p
T is
a v
m s
p t
u a
Ġ ra
Ġa d
Ġs ame
Ġs aid
Ġm orn
ll ow
Ġn one
Ġc ould
on a
ar ry
Ġh us
Ġg rief
Ġbe st
ad e
Ġha pp
ĠM ant
ĠS ome
Ġnot hing
Ġe ver
oo l
ĠN ay
ain s
Ġso on
as ure
ĠTh urs
Ġqu ar
Ġhast e
Ġhand s
Ġlive s
Ġwo e
Ġnew s
Ġlea ve
ĠMusici an
Ġhus band
ĠMant ua
ĠThurs day
a il
e el
f or
i v
l se
Ġ [
Ġt or
he s
Ġs in
Ġs leep
ou ght
Ġm ost
Ġm aster
Ġw all
Ġw ind
Ġw atch
re t
Ġb od
er ona
Ġth ine
Ġc ourt
Ġmy self
Ġst ill
ĠL a
ul t
ĠThe y
im p
Ġsha me
Ġan other
ĠG ive
hi le
Ġse nd
ame nt
Ġcon f
ĠWhe n
Ġcom p
Ġab ove
ĠBe ing
ĠV erona
ĠSe cond
b e
i ke
l t
n ess
o ke
u p
u mb
Ġt re
Ġt on
Ġt urn
Ġs er
Ġs et
Ġm er
Ġw ay
nd er
Ġl ate
Ġl aw
Ġl itt
ĠI I
Ġd raw
Ġn or
Ġc han
on our
Ġto mb
se nt
Ġhe av
Ġh ither
Ġp er
Ġp ass
Ġy e
Ġy ears
Ġbe ar
Ġbe ing
at s
ad am
ĠM adam
oo se
Ġwith in
Ġfor g
Ġfor th
ĠF are
ĠL et
ĠH er
ĠP eter
Ġdo st
Ġman y
ure nce
Ġthere fore
Ġmar ry
ĠY our
ard on
fe ct
Ġpo ison
Ġdis c
Ġcom fort
Ġpl ace
ĠU n
Ġche ek
Ġbeaut y
Ġkins man
Ġhapp y
ĠLa urence
Ġlitt le
ĠFare well
l ing
r d
x t
Ġa pp
Ġm on
Ġm akes
Ġm urd
Ġb ur
is ed
Ġf ool
Ġl ay
Ġd are
Ġc ame
ĠT han
se d
Ġh u
Ġp ri
Ġg r
at ter
ĠW ill
ĠW atch
Ġme an
Ġthou ght
Ġe very
Ġwith out
ĠO ne
ĠF riar
ĠH ath
ent er
Ġre me
Ġpr o
Ġmu s
ak ing
Ġj o
Ġthan k
Ġmad am
Ġab out
Ġpl ay
Ġbr ing
Ġmis tre
Ġwho se
Ġcl ose
Ġmarri age
Ġcha mber
ĠThere fore
Ġwar rant
Ġbet ter
Ġmorn ing
Ġquar rel
Ġbod y
Ġton gue
' t
a b
c u
c ome
c ause
e en
f f
i al
n ing
p are
u b
Ġ ve
Ġa ir
Ġs ad
Ġs il
Ġs orrow
Ġs aw
Ġm in
Ġm ind
Ġw ed
Ġb ound
Ġb oy
is t
Ġd one
Ġth r
Ġn at
on es
Ġh one
Ġh igh
Ġh onour
Ġp le
Ġp ur
Ġp ale
Ġp ardon
Ġg et
ĠR os
Ġme et
ĠM arry
Ġe ven
Ġe lse
Ġfor tu
Ġst ra
Ġde l
al ine
ĠH ave
ĠH old
Ġfa re
Ġsha lt
as k
ent y
Ġk ind
Ġk iss
Ġhim self
Ġv a
ho ld
Ġsw ear
Ġar m
Ġsay s
Ġbl ack
Ġcon t
Ġear s
Ġtw enty
Ġcou n
Ġcall s
Ġfl ower
per ate
Ġstre et
Ġban ish
Ġban ished
Ġgre at
Ġdes perate
Ġri ch
sw er
Ġheav y
ĠRos aline
Ġstra ight
: --
a z
b an
b ed
c ary
c ient
g s
g ed
i z
l f
p ot
p en
u d
Ġt ri
he cary
Ġs ight
ou nty
Ġw om
Ġw ast
Ġw ise
re ss
Ġf ight
Ġf ell
Ġf ie
Ġf ire
Ġf irst
Ġl ear
Ġl ast
Ġd u
or y
Ġc ase
Ġh ide
Ġy ond
ĠA t
Ġg l
Ġg ra
Ġyou th
et h
at ion
ĠS p
Ġthou gh
ĠO n
Ġst ir
ĠF r
ĠN or
Ġde v
Ġas k
as on
Ġan swer
hi p
Ġre s
Ġsh ow
Ġno ble
Ġon ce
Ġon ly
Ġgo ld
ĠD e
ĠD oth
row s
Ġr o
Ġday s
Ġdis p
Ġdis t
Ġagain st
Ġcou nty
Ġcl oud
Ġfl ow
Ġfo ot
Ġfo llow
Ġother s
Ġwr it
Ġbri de
Ġint o
Ġtor ch
Ġser ve
Ġforg et
Ġgr ound
Ġmistre ss
Ġfortu ne
Ġfare well
Ġva ult
pot hecary
a c
a ch
c ha
e ch
e ed
e al
i ld
n ed
o on
o ice
s h
t end
v ol
y ard
Ġs it
Ġs ing
Ġs ea
Ġm erc
Ġw ant
in ess
re at
Ġb ir
Ġb ook
Ġb ite
Ġb os
Ġb ones
Ġf ea
Ġf ull
Ġf eel
Ġl ament
Ġd en
Ġd ru
Ġd ark
Ġd oom
ve nt
ĠT ake
an y
Ġp en
Ġp ast
Ġo pp
ĠA ll
Ġg u
Ġbe se
et ch
Ġme ans
ĠS h
ĠC ounty
Ġu nder
Ġan cient
Ġre p
Ġsh ort
Ġsw ord
gu es
Ġtime s
Ġen em
Ġwo es
Ġwo ful
ĠU p
Ġhour s
Ġstr an
Ġchurch yard
Ġconf ess
Ġmer ry
fect ion
Ġmurd er
ĠWatch man
Ġsil ver
Ġcoun sel
ban ished
ĠDe ath
Ġcloud s
Ġbos om
Ġfea st
b er
c le
d y
f ied
j ure
l s
l ic
n k
s and
t w
u ck
v ance
Ġ K
Ġt end
Ġa cc
Ġs ince
Ġs ick
Ġs aint
Ġm ight
Ġw ret
re r
Ġb it
Ġb urn
Ġf ing
Ġf ound
Ġf les
Ġl ess
it iz
Ġd ri
Ġd ag
or se
Ġn ear
Ġc are
Ġc old
Ġc orse
ĠT oo
ĠT ill
ot ion
Ġh it
Ġh ot
Ġh ome
Ġp at
Ġp al
Ġp il
Ġo ver
ĠA r
Ġg ir
Ġbe l
Ġbe cause
Ġbe hold
en ch
at is
ĠR et
Ġin de
Ġme asure
Ġthou sand
ĠB en
Ġst ri
Ġst ars
ĠL ord
ĠH is
Ġso le
Ġthy self
ent s
Ġre m
Ġsh ows
Ġsu b
Ġsu pp
Ġsu dd
Ġne xt
Ġpr ove
Ġv ile
ĠD raw
Ġcan st
row n
Ġr an
ort al
Ġmar k
Ġcon s
Ġj est
ĠY et
Ġor cha
Ġqu ick
Ġlo ving
Ġlo vers
Ġpre t
Ġlook s
Ġgentle men
Ġword s
Ġen ough
Ġbr other
Ġex ile
Ġex cu
em per
pe ct
Ġblood y
Ġaf f
Ġaf ter
Ġfear ful
ĠSt ay
Ġmove d
ĠAl ack
Ġreme mber
Ġjo int
Ġwed d
Ġthr ough
Ġhone st
Ġbese ech
Ġtend er
Ġfles h
itiz en
Ġdag ger
Ġinde ed
Ġsudd en
Ġorcha rd
' ?
A H
A s
A y
B R
a f
b s
b t
c her
e ous
g r
g ing
i or
i ence
n es
u ment
u mp
v ious
w ay
Ġ ent
Ġ imp
Ġt ale
Ġa ge
Ġa ct
Ġs k
Ġs le
Ġs igh
Ġs atis
Ġm atch
Ġm atter
Ġw oo
Ġw ound
Ġw ish
Ġw hile
ha l
re n
Ġb ow
is ter
Ġf ar
Ġf ourt
Ġf urt
Ġf etch
Ġl ad
Ġl am
Ġl ark
Ġd ou
Ġd ance
Ġth ree
Ġth umb
Ġn ay
Ġc ut
Ġc ri
Ġc ho
Ġc ry
Ġc ords
on s
ar ing
me nd
ĠT urn
Ġh urt
Ġp ower
st ant
ĠA BR
Ġg all
Ġg ro
Ġg oose
Ġof t
at t
ĠW as
ut e
Ġha ng
Ġha ving
ĠM ore
ĠS u
ĠS w
ĠS ir
ĠS aint
ĠC h
ĠC an
oo f
ĠO ur
Ġde p
Ġde ep
Ġit self
ĠL ook
ĠL ike
ĠH ence
ĠP r
ĠThe se
ra h
Ġre t
Ġre ason
Ġsh ri
Ġsu m
Ġdo g
Ġno ise
Ġse en
Ġv al
Ġv oice
Ġsp oke
Ġat tend
Ġkn e
ĠD id
us h
Ġr ose
Ġho ar
Ġho ld
Ġcon sent
Ġpo int
ng th
ink s
Ġdid st
Ġpre sent
Ġen vious
Ġbre ast
Ġbre ak
ĠCapulet s
Ġcou nt
Ġspeak s
Ġaw hile
Ġfo e
Ġstre ngth
Ġmaid s
Ġmaid en
Ġfriend s
Ġbri ght
Ġwh om
Ġunt o
Ġcomp any
ĠII I
Ġcheek s
Ġmon ument
Ġmus ic
Ġnat ure
Ġbanish ment
Ġlear n
Ġyond er
ĠFr om
Ġflow ers
vol io
Ġenem y
Ġbit ter
Ġgir l
ĠBen volio
AH AM
As ide
Ġsle w
Ġfourt een
ĠABR AHAM
! '
! --
; '
? '
C T
H N
O HN
W ith
a ir
c l
c on
c han
c hed
c ious
d om
g ri
h ood
k en
m n
m it
m ing
n er
n ers
r ing
s se
t ime
w o
Ġ im
Ġt er
Ġt ear
Ġt ort
he n
he ad
Ġs en
Ġs ent
Ġs ide
Ġs imp
Ġm et
Ġm od
Ġm orrow
Ġm ask
Ġm oon
Ġw a
Ġw ake
Ġw ings
Ġw alk
Ġw ild
re ady
Ġb us
Ġb raw
Ġb rief
Ġb les
Ġb ade
ll ing
Ġf e
Ġf ore
Ġf ive
Ġf ine
er t
er ing
Ġl ent
Ġl aid
ĠI V
it ion
Ġd an
Ġd am
Ġd iv
Ġth us
Ġth ings
Ġn ine
Ġc our
Ġc ru
Ġc row
Ġc ond
Ġc ause
ar ri
ve d
ĠT wo
Ġto ward
Ġhe ll
Ġhe ir
an ish
st ance
ĠA pothecary
ĠA CT
Ġg i
Ġg ho
Ġg ave
Ġbe at
at hed
ur y
ut h
Ġha re
Ġha ir
ĠM ay
ir it
ir on
ir tu
Ġe ither
Ġe ase
Ġe mp
ĠB l
ĠC ould
ĠC all
ĠC up
ĠC itizen
ĠO ut
ed s
Ġfor m
Ġfor sw
Ġst ate
Ġli ving
Ġde f
Ġde w
ĠJ OHN
al th
ĠH el
ĠP o
ĠP age
ĠE re
Ġso ft
Ġher self
Ġas leep
Ġsha pe
Ġan ger
ru st
if t
if ul
Ġre ad
Ġsh ut
Ġyour self
ant s
Ġse cond
Ġfr ay
Ġpr om
Ġpr oud
Ġv is
Ġv ow
Ġsp irit
Ġsw ords
Ġkn ave
Ġkn ock
ie ce
Ġr ing
Ġr ough
Ġho pe
ime ly
Ġtoo k
Ġcon jure
ak en
fe it
Ġsee k
Ġwor s
Ġqu oth
Ġal ready
Ġsl ow
Ġsl ay
Ġsl aughter
Ġgive s
ire s
Ġpre pare
Ġtru st
Ġhouse s
ite ous
Ġwhere fore
Ġex ce
Ġru de
ick le
ĠMonta gues
ro ss
Ġsc orn
Ġch ide
ici ans
Ġcha r
ĠAn on
Ġwr itt
Ġwit s
Ġwit hal
Ġlong er
Ġhad st
ĠSe e
Ġjoy ful
Ġhead s
Ġletter s
Ġdream s
Ġle ad
Ġbeg g
Ġbeg in
Ġtr uth
ust om
Ġsm ile
ĠAl as
Ġunt imely
Ġwind ow
Ġchan ge
Ġhu m
Ġmus icians
Ġhonour able
Ġple asure
Ġdel ight
Ġfell ow
Ġgra ce
ĠSp eak
Ġlament able
vent ure
Ġgu est
ĠUp on
Ġstran ge
Ġfing ers
Ġpil gri
Ġrem ove
Ġquick ly
Ġpret ty
Ġexcu se
Ġwedd ing
Ġsigh s
Ġsatis fied
Ġfurt her
Ġlad ies
ĠSw eet
Ġret urn
Ġshri ft
With in
Ġbles sed
Ġgho st
ĠCup id
Ġwritt en
G E
G od
a ith
c o
c hes
c ret
d er
d en
d ge
g ment
g led
h n
i p
i x
l ight
l come
m ost
n ock
n ament
o es
o hn
p l
p ier
r oud
s p
s ome
t ing
u me
u ght
u ff
w om
Ġ ur
Ġ enter
Ġ iron
Ġt y
Ġt ou
Ġt ea
Ġt ast
he re
Ġa y
Ġs me
Ġs our
Ġs ell
Ġs ear
Ġs ake
Ġs ail
ou nt
Ġm ur
Ġm ouse
Ġm ortal
Ġw is
Ġw ond
Ġw ench
in ed
re w
re ad
Ġb le
Ġb ad
Ġb row
Ġb are
Ġb orn
Ġb aw
Ġb ig
Ġb old
Ġb less
Ġb ud
is ses
ll en
Ġf at
Ġf al
Ġf ain
Ġf aint
Ġf oul
Ġf ier
Ġf ought
er n
Ġl od
Ġl au
Ġl end
Ġd r
Ġd ove
Ġd ra
Ġd ry
Ġd ate
Ġd ies
Ġd well
or s
Ġth ither
Ġth rust
Ġc ir
Ġc al
Ġc urse
Ġc ure
Ġc rave
Ġc ity
Ġc urt
Ġc iv
Ġc arri
ve s
me d
ĠT ut
ĠT ell
Ġto wn
se em
Ġh ie
Ġp ar
Ġp ay
Ġp ain
Ġp ers
Ġp iteous
Ġo dd
Ġo cc
Ġo pen
ĠA d
ĠA m
ĠA way
Ġbe ast
ome n
Ġin ter
ĠW ould
ĠW el
ĠW ilt
Ġme ant
ce ive
Ġha r
Ġha rd
Ġha lf
ĠS us
ĠS ince
ir d
Ġnot e
Ġe ast
ĠC ame
ill s
ed ing
ri ght
Ġfor b
Ġst ar
Ġst ain
Ġst eel
Ġst umb
Ġst eal
ĠF aith
ĠN e
ĠJ ohn
ĠL ady
Ġwe ar
Ġwe ap
Ġwe ak
Ġwe lcome
ĠH a
ĠH ad
ĠH ie
ĠP eace
ĠE ither
Ġso ld
Ġher s
ul y
Ġas s
Ġfa st
Ġfa ult
ra ce
ĠTh us
ĠG entle
ear t
Ġre ady
Ġsu re
Ġyour s
Ġse cret
Ġfr own
Ġv ain
Ġv io
Ġv irtu
Ġsp ite
Ġsp eed
Ġgo ss
Ġkn ife
ie u
ie ve
Ġam ong
th ing
Ġr oom
ound s
Ġbl ind
ate ly
Ġor nament
Ġsome thing
Ġwas h
Ġknow n
Ġpo st
ose d
Ġwor k
Ġwor m
Ġwor n
Ġqu iet
Ġal ack
Ġal ong
Ġun l
Ġun cle
Ġlo ver
Ġlo ss
Ġcom ing
Ġcom mend
Ġpre s
Ġpre cious
Ġab ro
Ġpl a
Ġgentle wom
Ġlight ning
ĠPA GE
Ġen c
Ġbr o
Ġheart s
Ġmis er
Ġex tre
Ġcou nter
ĠServ ing
Ġheaven s
os ition
Ġname s
ĠWith in
ment s
ĠYou ng
Ġsc ar
Ġstre w
Ġwr ong
ĠWho se
Ġaf fection
ven ge
Ġgre y
Ġgre en
Ġdes p
Ġkeep s
Ġri ght
ĠSt and
Ġfall s
Ġneed s
Ġle ft
Ġche er
Ġhate ful
Ġwar m
Ġbet w
Ġint ents
Ġweep s
Ġkins men
ign ior
Ġsm all
Ġco z
Ġco ver
Ġra ge
Ġad vance
Ġchan ce
ĠUn less
Ġbur y
Ġbur ied
Ġdare s
Ġpri ck
Ġve ins
Ġsad ness
Ġmin ute
Ġpur p
Ġcont r
Ġstreet s
az e
Ġwom b
Ġwise ly
ress ion
Ġgl ad
Ġres pect
Ġgold en
Ġbride gr
eal ous
Ġmerc y
Ġbir d
Ġbir th
Ġdru nk
ĠK nock
Ġwret ched
Ġpat ience
Ġpal m
ĠAr t
Ġstri ke
Ġsole mn
Ġcons ort
Ġlam b
Ġdou bt
ĠSu ch
Ġdep art
Ġsum m
Ġtort ure
Ġsen se
Ġdam ned
Ġcour se
Ġcru el
Ġcond u
Ġemp ty
Ġforsw orn
Ġhum our
Ġghost ly
Ġtou ch
Ġmur de
Ġwis dom
Ġfat al
Ġlau gh
Ġciv il
ĠWel come
Ġvio l
Ġgentlewom an
Ġbridegr oom
ĠKnock ing
. --
: '
H eart
T ybalt
a cc
b l
c he
c is
c ing
c ure
d al
d raw
e c
e an
e red
f ice
g g
g es
g ain
h ouse
i ly
i ver
i vers
i xt
j ur
k er
l er
l os
l ike
m as
m ine
m ity
m ary
m ade
m ortal
n ow
n oon
o ot
o ly
o oth
p an
p ing
r p
r ay
r atch
s u
s ha
s ion
u y
u se
u le
u ne
v y
v our
v ive
v ish
w or
w ear
Ġ i
Ġ ut
Ġ id
Ġ ord
Ġ venge
Ġt a
Ġt id
Ġt ail
Ġt emper
he nd
he st
Ġa h
Ġa p
Ġa dd
Ġa pt
Ġa pothecary
Ġs ave
Ġs au
Ġs erv
Ġs ought
ou nter
ou nce
ou ble
Ġm ood
Ġm att
Ġw at
Ġw ide
Ġw ag
Ġw akes
Ġw aking
Ġw omen
in ing
in ner
re st
re hend
Ġb orrow
Ġb ark
Ġb urd
Ġb rows
Ġb uy
nd red
Ġf is
Ġf it
Ġf an
Ġf ly
Ġf ood
Ġf el
Ġf est
Ġf ond
Ġf ree
Ġf ury
Ġf ickle
er al
Ġl an
Ġl ain
Ġl ust
it ch
it ed
Ġd ire
Ġd inner
or ous
or ses
Ġn u
Ġc r
Ġc le
Ġc ea
Ġc ook
Ġc ock
Ġc up
Ġc ross
on y
on ounce
me s
Ġto ad
Ġto ld
Ġto il
se qu
Ġhe el
Ġhe alth
ot e
ot t
ot est
Ġh id
Ġh ood
Ġh ire
an g
an cis
Ġp ow
Ġp hi
Ġp ure
Ġp ack
Ġp are
Ġp ub
Ġp iece
Ġy ear
st al
st rel
ĠA re
Ġg ot
Ġg ru
Ġg rie
Ġg rown
Ġg aze
ing ale
Ġbe h
Ġbe gu
Ġbe ats
ow ard
at ing
Ġin f
Ġin v
Ġin con
ĠW ed
ĠW ife
Ġme d
Ġme at
ur b
ur al
ut s
ce d
ce nd
ce it
ce ss
ad d
ad s
ad venture
Ġha ll
ĠM is
ĠM ake
ĠM ost
ĠM ab
ĠS c
ĠS ignior
es u
es y
Ġe f
ĠC on
Ġwith draw
nt o
nt s
ove d
Ġst e
Ġst o
Ġst art
Ġst ru
Ġst if
Ġst op
Ġst int
ĠF ind
ĠF ie
Ġli ck
Ġli ber
Ġli ken
ĠN ight
Ġde al
ĠJ ack
ĠJ ule
ĠJ esu
ĠL ove
ĠL am
ĠH ast
ĠH ap
ĠH ark
ĠH ang
ĠP ut
ĠE ven
ĠE lse
ain ing
Ġlove d
Ġas ide
one st
Ġfa il
Ġfa ire
ver n
as h
as ion
ent io
Ġk isses
Ġan on
Ġan ge
ĠTh ings
ĠG re
ĠG et
ath some
if y
Ġre ve
Ġsh roud
Ġsu it
Ġsu ck
Ġse p
Ġse ver
Ġse lf
Ġpr ison
Ġpr oof
Ġpr onounce
Ġpr otest
out h
Ġv ie
Ġsp ent
Ġnight ingale
Ġsw orn
Ġsw ift
Ġgo d
Ġgo ing
Ġgo es
all ow
ie st
ie ld
ĠD ost
Ġam b
th y
and er
Ġr ouse
Ġr ather
Ġsir rah
Ġho l
Ġho llow
Ġbl ows
Ġbl ush
Ġday light
Ġwould st
Ġj ud
Ġj ealous
Ġsome time
Ġdead ly
est y
Ġknow s
hy me
Ġmay st
Ġpo sse
Ġsee ming
Ġwor se
Ġdis h
Ġal as
Ġal oof
Ġal most
Ġsl ave
Ġsl ander
Ġun s
Ġun ha
Ġun acc
Ġlo st
Ġlo gs
Ġlo athsome
Ġcom m
Ġpre vent
Ġpl uck
Ġsweet est
Ġbr ain
Ġmis adventure
Ġwho le
Ġex p
Ġex chan
em pt
Ġback ward
Ġcl im
ĠWith out
ĠBe cause
Ġru led
ĠU nto
ro ach
Ġsc ratch
Ġch oose
Ġstand s
aint ed
ici ous
ĠWe re
tre e
Ġgre et
Ġdes ire
Ġchild ren
op hy
Ġpray er
urs u
Ġneed y
Ġbri dal
Ġbeaut ies
Ġfaith ful
Ġwh ite
Ġweep ing
ĠMusici ans
Ġtr uly
Ġtr ouble
Ġend ure
Ġco ll
Ġstr ong
Ġra ise
Ġra pier
Ġad ieu
Ġquar re
ail ing
for ce
Ġwall s
Ġcourt eous
Ġcourt esy
Ġcomp l
be y
Ġtre mb
Ġturn s
Ġpass ion
Ġdisc ords
Ġapp rehend
Ġapp roach
Ġmon th
Ġmurd ers
Ġhu ndred
Ġthought s
Ġreme dy
Ġpro v
Ġjo in
Ġthank s
Ġclose d
Ġve x
Ġair y
Ġmin strel
Ġhone y
Ġple ase
Ġkind red
Ġtri ump
Ġwom an
Ġwast e
Ġfell ows
Ġfie nd
Ġfie ld
Ġdu g
Ġyouth ful
eth inks
ĠFr ancis
Ġdev il
Ġdev ise
Ġdist urb
Ġwant on
reat ure
Ġden y
Ġopp ression
ĠSh ould
Ġconfess ion
tw as
Ġwret ch
Ġpat ient
Ġbel ieve
ĠRet ires
Ġsub stance
Ġsupp er
Ġsupp osed
Ġaff ord
Ġafter noon
Ġjoint s
nes day
Ġent reat
Ġimp ort
ren ch
Ġcri es
Ġgro an
ĠSir rah
ĠCh urch
ĠHence for
Ġval our
Ġkne w
Ġkne es
Ġrose mary
Ġpresent ly
Ġmaiden head
Ġim mortal
Ġsimp le
Ġmod esty
Ġwa x
Ġbus iness
Ġgi ving
ĠHel p
ĠPo or
Ġvis or
Ġchar ge
Ġbegg ar
Ġguest s
Ġpilgri m
Ġur ged
Ġtea ch
Ġtast e
Ġsear ch
Ġbaw d
Ġfal se
Ġfier y
Ġlend s
Ġdr ink
Ġcal m
Ġcurse d
Ġcrave s
Ġcurt ains
seem ing
Ġocc asion
ĠSus an
ĠGentle men
Ġvirtu ous
Ġunl uck
Ġabro ad
Ġpla gue
Ġenc ounter
Ġbro ad
Ġcounter feit
ĠServing men
Ġaffection s
Ġbetw een
Ġadvance d
Ġpurp ose
Ġcontr ary
Ġsolemn ity
Ġsumm er
Ġcondu ct
Ġmurde rer
Ġviol ent
los ophy
Ġtid ings
Ġmatt ock
Ġwat er
Ġwag on
Ġburd en
Ġcea se
Ġpow der
Ġphi losophy
Ġpub lic
Ġincon stant
ĠWed nesday
Ġstru ck
Ġliber ty
Ġliken ess
ĠLam mas
Ġvie w
Ġjud gment
Ġposse ss
Ġunacc ustom
Ġexchan ge
; --
H old
O GUE
Q u
R omeo
R OL
T o
Y ea
Z ounds
a e
a it
a ld
b ut
b es
b our
b ell
b ea
b oy
b sequ
c i
c y
c re
c qu
c ry
c io
c reature
d ows
e x
e y
e ve
e ct
f an
f ull
f oot
g et
g le
g ive
g ion
g age
g oose
g ory
h rew
i a
i an
i ant
i ers
i ps
i ance
i pt
i ately
j oice
j ect
k s
k ing
k es
l o
l ot
l en
l et
l ast
l ers
l ies
m al
m ore
m us
m aid
m stance
n y
n at
n own
n cher
o ard
o gue
o ps
o pe
o bed
p le
p ised
r or
r an
r ine
r ance
r ough
s il
s ong
s ire
s ick
s ol
s hes
s imp
s hip
t s
t ain
t ic
t iest
t empt
u e
v ate
v ail
v ior
w ood
w art
w hich
w ise
w ife
z en
z el
Ġ &
Ġ rave
Ġ Qu
Ġt e
Ġt it
Ġt en
Ġt ut
Ġt ed
Ġt ra
Ġt row
Ġt ry
Ġt eet
Ġt able
Ġt aken
he l
he art
Ġa nt
Ġa qu
Ġa fore
Ġa ble
Ġa men
Ġa ught
Ġs y
Ġs ur
Ġs ch
Ġs al
Ġs hi
Ġs ie
Ġs alt
Ġs ort
Ġs ink
Ġs ings
Ġs ign
Ġs ac
Ġs ister
Ġs now
Ġm or
Ġm ut
Ġm art
Ġm aking
Ġm otion
Ġm outh
Ġm ethinks
Ġw in
Ġw ent
Ġw are
Ġw ink
Ġw hip
Ġw ert
Ġw aken
in y
ha nt
ha vior
re nt
re sh
Ġb o
Ġb one
Ġb ore
Ġb ra
Ġb and
Ġb rave
Ġb ag
Ġb ier
Ġb ask
Ġb ott
nd one
nd eed
nd sire
is ure
is ion
is ans
ll s
ll or
ll ent
Ġf le
Ġf our
Ġf ru
Ġf ant
Ġf ish
Ġf led
Ġf un
Ġf right
Ġf resh
er ately
Ġl en
Ġl our
Ġl ant
Ġl est
Ġl ose
Ġl ab
Ġl az
ĠI m
ĠI ndeed
it s
it ing
it ies
it iful
it ae
Ġd et
Ġd im
Ġd if
Ġd ro
Ġd aught
Ġd ull
Ġd eter
Ġd ign
Ġd un
or m
or us
Ġth in
Ġth ir
Ġth ri
Ġth reat
Ġn im
Ġn ice
Ġn ought
Ġn iece
Ġc at
Ġc ur
Ġc her
Ġc ra
Ġc ast
Ġc and
Ġc ave
Ġc atch
Ġc orn
Ġc un
Ġc arry
Ġc ats
Ġc itizen
on ing
ar ch
ve th
me mber
ĠT or
ĠT ru
ĠT aking
ĠT ush
ĠT oward
Ġto ps
se t
se mb
se nce
se llor
Ġhe ld
Ġhe ed
Ġhe ard
ot ing
ot pan
Ġh ild
Ġh orses
an ity
Ġp e
Ġp ul
Ġp ra
Ġp ath
Ġp ort
Ġp ap
Ġp est
Ġp age
Ġp ity
Ġp un
Ġp ains
Ġp otion
Ġp ump
Ġp air
Ġp ursu
Ġo w
Ġo pe
Ġo bsequ
Ġy on
st e
st r
st ain
st one
st ru
ĠA b
ĠA f
ĠA men
Ġg en
Ġg ear
Ġg row
Ġg rant
Ġg rows
Ġbe am
Ġbe th
Ġbe ars
Ġbe come
Ġbe sh
en e
en us
et r
et s
at he
at es
at ed
ay ing
ĠR ight
Ġin qu
Ġin fection
Ġin stru
le st
le ven
ĠW h
Ġme nd
Ġme sse
ur vy
Ġis su
ut ch
ut ion
ut ation
ch re
ce ase
ad o
ad ing
ad ise
Ġha p
Ġha zel
ĠM ond
ĠM ust
ĠM ask
ĠM any
ĠM ean
ĠS ay
ĠS end
ĠS leep
ld er
ir t
es hrew
es pised
Ġe gg
Ġe leven
ĠB id
ĠB ear
ĠB ea
ĠB oth
ĠB el
ĠB eshrew
ĠC he
ĠC om
ĠO pen
ed ic
ri ck
ri fice
Ġfor s
Ġfor ty
Ġfor ward
Ġfor feit
Ġst ore
Ġst out
Ġst ep
Ġst ick
Ġst ol
Ġst ab
Ġst ones
Ġst ory
Ġst ony
Ġst orm
ĠF ear
ĠF all
ĠF ull
ĠF rench
Ġli qu
Ġli mb
Ġli very
Ġli mit
Ġde are
Ġde af
Ġde bt
Ġde ceive
Ġde mes
Ġu ndone
ĠJ ust
ĠL o
ĠL u
ĠL ea
ĠL ive
ĠL est
ĠL ies
ĠL aying
id d
id ow
id ence
Ġwe st
Ġwe ek
Ġwe aring
Ġwe eds
Ġwe alth
our ses
ĠH all
ĠH oly
ĠH onest
ĠP l
ĠP ro
ĠP ret
ĠP ardon
ĠP ROL
ĠP otpan
ĠP rick
ĠE n
ĠE ver
Ġso ar
Ġher bs
Ġher ald
Ġlove s
Ġlove st
Ġlove ly
ul ar
ul chre
ck s
ck oning
Ġas hes
Ġfa vour
ver se
ver ty
Ġsha re
Ġsha rp
Ġsha dows
as hing
ell ist
ra ge
ĠTh ree
ĠTh ird
ĠTh rough
ĠG rief
hi pp
Ġshe d
Ġbut t
ru pt
Ġre f
Ġre ce
Ġre ign
Ġre vive
Ġre joice
Ġre ckoning
Ġsh ot
Ġsh rie
Ġsh own
Ġsh op
Ġsh oes
Ġsu sp
Ġsu llen
Ġdo or
Ġdo ors
ake st
Ġno se
Ġman age
Ġman ner
Ġman ners
Ġman gled
Ġman sion
Ġne st
Ġne ck
Ġne igh
Ġse al
Ġse est
Ġpr or
Ġpr os
Ġpr ol
Ġpr op
Ġmu ff
Ġv ice
Ġv ol
Ġv ial
Ġv itae
Ġv anity
Ġsp y
Ġsp le
Ġsp id
Ġsp ake
Ġsp ort
Ġsp urs
Ġsp ade
Ġsp ring
Ġnight ly
Ġwhe nce
Ġar ray
Ġhere ab
Ġhere af
Ġkn ight
ĠD ry
ĠD ies
ĠD espised
am our
am ine
us ion
Ġam az
Ġam orous
Ġcan ker
Ġr at
Ġr ate
Ġr ite
Ġr hyme
ĠEx amine
Ġthen ce
gu ed
gu ish
ic t
ic ion
Ġho p
Ġour s
Ġbl ow
Ġbl ade
ort ion
ap e
ak s
ak er
ak ed
Ġj our
Ġj au
Ġj ust
ĠY es
ĠY ea
Ġout rage
pp y
el s
el ve
est ion
est able
Ġfair ly
Ġfair ies
fe rent
Ġmad man
ong ing
Ġpo verty
Ġsee m
Ġsee ing
Ġsee ms
ng er
Ġwor ms
Ġdis mal
Ġdis obed
Ġqu ite
Ġqu ench
Ġqu estion
Ġal oud
Ġal ike
Ġag o
Ġun b
Ġun f
Ġun k
Ġun w
Ġun less
Ġlo athed
Ġlo cks
ĠThou gh
ire d
Ġcom b
Ġpre ss
Ġpre sence
ct ion
Ġtru dge
Ġab h
Ġab u
Ġpl ain
Ġlike wise
Ġlight s
Ġen j
Ġen mity
Ġhouse hold
Ġear l
ĠCap el
Ġbr ings
Ġbr ains
Ġbr oke
Ġbre athed
ilt y
Ġtw ain
Ġtw elve
Ġmis s
Ġmis t
Ġmis fort
Ġnurse d
Ġcall ed
em ned
os sed
Ġcl ub
Ġnew ly
Ġpart s
Ġpart isans
ĠSo ft
ĠBe g
Ġru shes
Ġfl ies
Ġfl atter
Ġdear ly
Ġeyes ight
ne ath
per ous
ĠU nder
Ġaw ake
Ġfo ll
ĠV al
ĠV enus
Ġstay s
Ġsc ene
Ġsc ape
Ġhear ing
ĠNo ise
ile d
Ġcha llen
Ġstre t
Ġstre aks
Ġfind s
ock s
Ġwr ite
Ġwr ought
Ġdre w
Ġdes cend
ĠSe al
Ġjoy s
Ġpray ers
ag ate
Ġlea p
itt ing
Ġgrave s
ĠMus ic
ĠSt ill
ĠSt op
Ġdream t
sw eet
ull s
Ġsound ing
Ġsound ly
Ġle g
Ġle gs
Ġle isure
Ġbeg an
Ġbeg ins
Ġbeaut eous
Ġmother s
Ġwh ore
Ġwh ist
Ġhel ps
Ġint end
Ġtr oth
Ġsoul s
Ġend ed
Ġsm oke
Ġsm ooth
iss ion
Ġoff er
Ġoff ice
Ġstr ain
Ġra ised
Ġad venture
Ġcould st
Ġgrief s
Ġbest ri
ĠSome time
Ġever last
Ġleave s
iv al
Ġtor ment
Ġtor ches
Ġsleep s
Ġwind s
Ġwind ows
Ġwatch ing
Ġshame st
Ġconf usion
Ġcomp are
be at
be seeming
Ġtre ncher
Ġser p
Ġmer it
Ġmer ri
Ġway s
Ġdraw n
Ġchan ged
Ġheav iness
Ġper force
Ġpass ing
Ġpass ado
Ġye w
Ġforg ot
Ġdisc o
Ġdisc ourses
Ġapp ear
Ġbur nt
Ġfool s
Ġfool ish
Ġcame st
Ġhu ng
Ġpri ce
Ġpri de
Ġpri vate
Ġpro cure
Ġthank ful
Ġplay s
Ġmistre s
cu mstance
ub ber
Ġve stal
Ġsil k
Ġsorrow s
Ġthr one
Ġnat ive
Ġnat ural
Ġpur ged
Ġmeet ing
Ġdel ay
Ġdel iver
Ġcont in
Ġcont ent
Ġcoun sellor
Ġtri m
Ġwom anish
Ġfight s
Ġlear ned
Ġdu mp
Ġdu ellist
ĠAt tend
Ġgra ndsire
ation s
Ġdev otion
Ġask ed
Ġres ol
Ġro aring
Ġro bes
Ġdisp le
Ġdisp osition
Ġdist ill
Ġdist emper
Ġserve d
Ġsit s
Ġsing le
Ġsing ular
Ġmerc iful
Ġwant ing
Ġdru gs
Ġdoom s
Ġpen s
Ġpen ny
Ġgu ilty
ĠSh ow
Ġunder neath
Ġrep ent
Ġenem ies
Ġconfess or
Ġfeast ing
jure d
lic t
vance s
Ġacc id
Ġacc ount
Ġsaint s
Ġmight st
Ġburn ing
Ġfing er
Ġdri ft
Ġpal ace
Ġpil ot
Ġover th
ĠAr ise
Ġstri fe
Ġrem ain
Ġsub ject
ĠDraw ing
Ġran k
Ġpret tiest
Ġwedd ed
Ġent rance
Ġsk ulls
Ġwound ed
Ġcho ice
Ġcho ler
Ġcry ing
stant ial
Ġgall ant
Ġgall ops
Ġgro ans
Ġoft en
Ġhang s
ĠCh orus
ĠPr ay
ĠPr ince
Ġval iant
Ġrose s
Ġhoar se
Ġbitter ly
cl ock
mit ies
Ġter m
Ġter ror
Ġsent ence
Ġbraw l
Ġbraw ls
Ġfe e
Ġdan ger
Ġdan cing
Ġdiv ine
Ġtoward s
ĠCitizen s
Ġdef y
ĠHel en
ĠPo ison
Ġknock s
Ġwors er
Ġwors hip
Ġexce ls
Ġexce llent
Ġsmile s
Ġdelight s
Ġpilgri ms
co ver
Ġty rant
Ġmortal s
Ġwond er
Ġble st
Ġbig ger
Ġlod ging
Ġdra g
Ġdra m
Ġcir cumstance
Ġcarri on
med iately
Ġpar adise
Ġpers on
Ġpers ons
ĠAm ong
Ġmeant ime
Ġhar lot
Ġforb id
Ġforb ear
Ġweap on
Ġweap ons
ĠHa ving
Ġsold ier
Ġgoss ip
Ġornament s
Ġworm wood
Ġpres ses
Ġmiser y
Ġmiser able
Ġscar let
Ġdesp air
Ġglad ly
Ġpalm ers
gain st
jur ies
wor thy
wear y
Ġut ter
Ġord er
Ġvenge ance
Ġtail or
Ġap ace
Ġsau cy
Ġserv ing
Ġmood y
Ġfel t
Ġfest ival
Ġlust y
Ġnu mber
Ġcr utch
Ġpare nts
Ġbeh ind
Ġmed l
ĠSc urvy
Ġef fect
Ġstart s
Ġstif f
Ġstint ed
ĠNight ly
ĠHap p
Ġfaire r
ĠGre gory
Ġsep ulchre
Ġhol id
Ġsometime s
Ġdish onour
Ġcomm on
Ġclim b
Ġgreet ing
Ġquarre lling
Ġcompl ime
Ġtremb le
Ġminstrel s
Ġtriump h
ĠHencefor ward
Ġunluck y
Ġwagon er
bea rer
cqu aint
ey ed
full y
len ess
mus ic
sil ver
simp le
Ġrave n
Ġtut or
Ġted ious
Ġteet h
Ġant ic
Ġaqu a
Ġsch ool
Ġsie ge
Ġsac rifice
Ġmut iny
Ġband y
Ġbag gage
Ġbott om
Ġfru it
Ġlant ern
Ġlaz y
Ġdet estable
Ġdif ferent
Ġdaught ers
Ġdeter mine
Ġthir ty
Ġthreat en
Ġnim ble
Ġcher ish
Ġcorn s
Ġcun ning
Ġcitizen s
ĠTru e
ĠToward s
Ġpap er
Ġpest il
Ġobsequ ies
Ġgen eral
Ġbeam s
Ġbeth ink
Ġbesh rew
Ġinqu ire
Ġinstru ments
Ġmesse nger
ĠMond ay
ĠMask ers
ĠMean ing
ĠBea ut
ĠFall s
Ġlimb s
Ġdeceive d
Ġdemes nes
ĠPret ty
ĠPROL OGUE
ĠEver more
Ġrevive d
Ġsusp icion
Ġneigh bour
Ġpros perous
Ġvol ume
Ġhereab out
Ġhereaf ter
Ġamaz ed
Ġjau nt
Ġdisobed ient
Ġhousehold s
Ġmisfort une
Ġflatter ing
Ġchallen ge
Ġeverlast ing
ubber ing
ĠAttend ants
' ;
' re
' --
? --
A n
B y
B ut
H ow
I n
I t
J uliet
L ord
M y
M ore
N o
N urse
P roud
S E
S ignior
T w
T hen
W ell
W ilt
W hen
W here
Y our
a im
a us
a ise
a eter
a be
a gued
a ction
b b
b it
b et
b id
b ly
b us
b row
b ook
b el
b ro
b ird
b oard
c or
c an
c at
c ad
c ke
c om
c our
c ent
c il
c am
c iet
c ile
c led
c ree
c up
c ats
c ation
c hen
c arri
c ross
c cess
c entio
d o
d es
d ove
d art
d ic
d ies
d ite
d ost
d ro
d ence
d ona
d iv
d ress
e f
e w
e re
e er
e or
e ing
e ad
e ld
e ather
e ech
e vish
e rest
e bus
f ing
f ill
f ell
f ath
f all
f ess
f ather
f old
f ace
f ling
f ix
f lies
f its
f action
g o
g t
g y
g at
g our
g ent
g all
g ry
g ic
g ers
g entle
g ger
g ress
g ross
g ills
g race
g ression
h oo
h our
h ra
h unt
h orses
i ar
i gu
i pp
i erc
i able
i ber
j u
j our
j ac
j ury
j ealous
k ful
k ins
k rupt
l an
l ow
l ove
l ous
l ady
l oy
l aw
l ance
l ig
l ings
l ace
l ower
l ub
l ves
l vish
l oved
l iest
l ks
l ocks
m i
m in
m il
m and
m od
m ak
m ong
m ps
m per
m ark
m arry
m ory
m ates
m ired
m ission
n s
n on
n ut
n ch
n al
n urse
n ge
n ame
n ous
n el
n atch
n ation
n ants
n icious
o e
o f
o in
o ak
o ise
o em
o ans
o led
o llow
o ken
o ci
o kes
o zen
o gued
o cation
o gy
p he
p in
p or
p ed
p ri
p ter
p est
p ta
p ost
p ig
p aint
p less
p ac
p ires
p icious
p ortion
p ired
r m
r on
r ous
r ind
r other
r ate
r ouse
r ps
r ans
r ist
r ged
r inks
r uly
r ating
r aining
r hyme
s he
s on
s ar
s hi
s sel
s ic
s pe
s ier
s ign
s sed
s pect
s cre
s oled
t o
t le
t ly
t ent
t hi
t ake
t ter
t ook
t ish
t ide
t own
t ice
t led
t night
t iz
t ires
t ered
t ossed
u g
u nd
u gh
u ch
u est
u ng
u ance
u pt
u nder
u gment
u cing
v ise
v oy
v io
v ity
v ised
v iron
w s
w er
w it
w ill
w hy
w ink
w aking
w ild
w ench
w ield
w hel
w idow
x e
x es
x ter
y r
y s
y es
y nt
y ers
y mn
y ves
z e
z z
z es
Ġ er
Ġ et
Ġ eter
Ġ ign
Ġ vers
Ġt as
Ġt all
Ġt ack
Ġt ard
Ġt est
Ġt ide
Ġt orn
Ġt ilt
Ġt em
Ġt ig
Ġt un
Ġt ree
Ġt arry
Ġt atter
Ġt etch
Ġt race
Ġt une
Ġt allow
Ġt empt
Ġt ainted
Ġt ips
Ġt ipt
Ġt aker
he ard
he tu
Ġa ch
Ġa ck
Ġa im
Ġa pe
Ġa mend
Ġa ches
Ġa che
Ġa lder
Ġa cquaint
Ġa ccess
Ġa ugment
Ġa xe
Ġs or
Ġs id
Ġs ack
Ġs qu
Ġs ale
Ġs av
Ġs hip
Ġs af
Ġs ix
Ġs outh
Ġs allow
Ġs itting
Ġm at
Ġm id
Ġm our
Ġm one
Ġm ant
Ġm il
Ġm ast
Ġm am
Ġm and
Ġm ire
Ġm aw
Ġm ile
Ġm ock
Ġm ass
Ġm ickle
Ġm ix
Ġm ount
Ġm ixt
Ġm oans
Ġw re
Ġw on
Ġw ot
Ġw ing
Ġw ood
Ġw il
Ġw ine
Ġw and
Ġw ave
Ġw ard
Ġw ither
Ġw ick
Ġw ary
Ġw ail
Ġw add
Ġw ield
Ġw ailing
Ġw rench
Ġw idow
in o
in es
in ea
in ant
in ite
in co
ha nd
ha ps
ha les
ha lf
ha pen
ha eth
ha ved
ha med
ha ppy
ha rged
ha sar
re nd
re ve
re et
re es
re th
re ate
re nce
re ign
re pare
re ason
Ġb on
Ġb ar
Ġb out
Ġb all
Ġb ap
Ġb au
Ġb ide
Ġb ale
Ġb ower
Ġb akes
Ġb ought
Ġb ounty
Ġb ac
Ġb uck
Ġb ump
Ġb att
Ġb ills
Ġb race
Ġb oot
Ġb ating
Ġb ait
Ġb aked
Ġb abe
Ġthe me
nd or
nd raw
is k
is ite
is per
is hes
is pl
is ping
ll ed
ll ous
Ġf et
Ġf ay
Ġf ur
Ġf art
Ġf il
Ġf ate
Ġf eet
Ġf ears
Ġf urn
Ġf em
Ġf ig
Ġf ade
Ġf ume
Ġf ount
Ġf idd
er ce
er ly
er age
er ity
er night
er haps
Ġl ar
Ġl ow
Ġl ur
Ġl es
Ġl ath
Ġl ame
Ġl ure
Ġl ack
Ġl ap
Ġl oud
Ġl ace
Ġl oose
Ġl ist
Ġl ash
Ġl inea
Ġl isping
it er
it or
it an
it es
it ra
it less
it cher
it ched
it chen
Ġd ow
Ġd ir
Ġd ine
Ġd rave
Ġd ig
Ġd aint
Ġd ied
Ġd ust
Ġd ial
Ġd rows
Ġd rown
Ġd ined
Ġd ivers
Ġd ash
Ġd oting
Ġd ates
Ġd edic
Ġd ashing
or a
or at
or ri
or ge
or ter
or ance
or able
or ious
or red
or ged
or ced
Ġth ie
Ġth orn
Ġth ro
Ġth igh
Ġth rown
Ġth read
Ġth ird
Ġth wart
Ġn ar
Ġn our
Ġn ap
Ġn ick
Ġn aught
Ġn un
Ġn umb
Ġn uts
Ġn ets
Ġn aked
Ġn ipp
Ġc hat
Ġc ot
Ġc ent
Ġc ord
Ġc ap
Ġc age
Ġc ost
Ġc op
Ġc ull
Ġc akes
Ġc rows
Ġc rown
Ġc ert
Ġc ustom
Ġc oward
Ġc reature
Ġc ait
Ġc aeter
Ġc reate
ar m
ar ies
ar ish
ar age
ar rel
ar ia
ar ated
ar iable
ve l
ve y
ve lling
ve rest
ve llous
me t
me ats
me tic
ĠT art
ĠT ime
ĠT ies
ĠT ick
ĠT alk
ĠT emper
ĠT rust
ĠT ickle
ĠT iber
ĠT rans
ĠT itan
Ġto p
Ġto y
Ġto es
Ġto wer
se n
se en
se eing
Ġhe at
Ġhe are
Ġhe ap
ot s
ot hes
ot eth
ot che
Ġh ur
Ġh ill
Ġh ind
Ġh ook
Ġh unt
Ġh urd
Ġh umb
Ġh ills
Ġh ymn
Ġh orri
an k
an ous
an ate
an gled
Ġp in
Ġp ome
Ġp ent
Ġp ear
Ġp ru
Ġp ant
Ġp out
Ġp ep
Ġp ie
Ġp ate
Ġp hy
Ġp ink
Ġp unt
Ġp oul
Ġp ars
Ġp ier
Ġp up
Ġp ush
Ġp ip
Ġp uff
Ġp ined
Ġp itch
Ġp ainted
Ġp itiful
Ġp hra
Ġp ierc
Ġp itcher
Ġp orter
Ġp ots
Ġo per
Ġo bs
Ġo mit
Ġo bey
Ġo sier
Ġy ell
Ġy ard
Ġy est
Ġy oke
Ġy ield
st er
st ate
st ity
st able
st ool
st uff
st ors
ĠA ur
ĠA nt
ĠA th
ĠA fore
ĠA pp
ĠA dd
ĠA cc
ĠA ff
ĠA gainst
ĠA cquaint
ĠA pri
Ġg le
Ġg ri
Ġg id
Ġg ore
Ġg ent
Ġg ame
Ġg ate
Ġg ap
Ġg own
Ġg un
Ġg ory
Ġg add
Ġg nat
Ġg yves
Ġg orge
Ġg arish
ing ing
ing ly
Ġbe ll
Ġbe et
Ġbe nt
Ġbe ard
Ġbe de
Ġbe ne
Ġbe hest
Ġbe havior
Ġbe lls
Ġbe fits
Ġbe nch
Ġbe paint
Ġbe scre
Ġbe half
Ġyou nge
en s
en y
Ġof fe
et y
et ru
et ite
et ition
at a
at or
at ri
at om
at ra
at ure
at ry
at age
at ient
at hes
at ling
at ience
at ue
ĠR est
ĠR ather
ĠR em
ĠR un
ĠR idd
ĠR aise
Ġin k
Ġin ch
Ġin fect
Ġin stant
Ġin ex
Ġin jured
Ġin juries
Ġin aus
Ġin cor
Ġin dite
Ġin und
le x
le ful
le op
le af
le ments
ĠW ive
ĠW ise
ĠW hile
ĠW ert
ĠW omen
ĠW hipp
ĠW arm
Ġme w
Ġme as
Ġme ss
Ġme ag
Ġme dd
Ġme ats
Ġme lan
Ġme mory
ur a
ur l
ur ing
gh ing
ith metic
ut eth
ut tish
ch o
ch ie
ch oly
ch pan
ce ll
ce al
ce eding
ce stors
ad es
ad ful
ad ict
ad vised
Ġha g
Ġha i
Ġha unt
Ġha ms
Ġha ught
ĠM e
ĠM en
ĠM ove
ĠM art
ĠM aint
ĠM akes
ĠM ass
ĠM urd
ĠM iss
ĠM ade
ĠM aking
ĠM ist
ĠM ethinks
ĠM uch
ĠM aria
ĠS in
ĠS ove
ĠS im
ĠS ear
ĠS ound
ĠS aid
ĠS ta
ĠS ings
ĠS pare
ĠS ub
ĠS ailing
ĠS itting
ĠS natch
ĠS inging
ir m
ir ing
ir rel
Ġnot es
Ġnot ed
Ġnot ice
Ġe ll
Ġe ight
Ġe mb
Ġe ag
Ġe aster
Ġe ats
Ġe lf
Ġe ach
Ġe lo
Ġe ste
Ġe lder
Ġe bb
Ġe mper
Ġe state
ĠB ra
ĠB ack
ĠB alt
ĠB ond
ĠB oy
ĠB rief
ĠB ring
ĠB anish
ĠB etr
ĠB rother
ĠC our
ĠC ast
ĠC ry
ĠC are
ĠC ond
ĠC old
ĠC op
ĠC ull
ĠC ons
ĠC uts
ĠC lub
ĠC ynt
ĠC atling
ĠC leop
oo ping
ill ing
ill anous
ĠO ld
ĠO nce
ĠO bey
nt age
ri ot
ri ch
ri ke
ri ving
ri ved
ri ves
Ġfor ce
Ġfor ms
Ġfor tnight
ove ful
ove red
Ġst one
Ġst age
Ġst ro
Ġst ale
Ġst ock
Ġst ark
Ġst akes
Ġst ains
Ġst ud
Ġst eed
Ġst air
Ġst uff
Ġst atue
ĠF ain
ĠF ly
ĠF ive
ĠF ather
ĠF ree
ĠF eel
ĠF etch
ĠF lies
ĠF eather
ĠF lower
ĠF ollow
Ġli p
Ġli ver
Ġli est
Ġli mp
Ġli ars
Ġli king
ĠN one
ĠN ell
ĠN UR
ĠN eed
Ġde ed
Ġde ck
Ġde pe
Ġde for
Ġde eds
Ġde ceit
Ġde cre
Ġde cease
Ġde cree
Ġde mand
Ġde xter
Ġu mp
ĠJ ove
ĠJ ame
Ġit s
Ġit ch
ĠL ight
ĠL ife
ĠL iv
ĠL ift
ĠL ead
ke st
ke ep
al s
al y
al ities
id ed
id ity
id eth
id ering
Ġwe b
Ġwe an
Ġwe al
Ġwe igh
Ġwe ary
Ġwe akest
om ies
our y
our ge
our ishes
ĠH o
ĠH ood
ĠH ear
ĠH ea
ĠH unt
ĠH ist
ĠH eart
ĠH ugh
ĠP art
ĠP ho
ĠP ink
ĠP erc
ĠP ale
ĠP iteous
ĠP ursu
ĠP itiful
ĠP etr
ĠP eer
ĠP haeth
ĠP repare
ĠP erhaps
ĠP etru
ĠP atience
ĠE art
ĠE very
ĠE aster
ĠE ach
ĠE thi
ĠE yes
ĠE cho
ain ed
Ġso re
Ġso les
Ġso ber
Ġso onest
Ġso ci
Ġso ciet
Ġso lace
Ġher ring
ul ty
ck ing
ck et
ck le
ck ed
urse d
Ġas semb
Ġas pired
Ġas under
Ġas hamed
her it
her ous
Ġwill s
Ġwill ingly
Ġfa mine
Ġfa mil
Ġfa shi
ĠThe e
ĠThe ir
ver b
ver t
ver il
Ġsha ke
Ġsha ft
Ġsha dy
Ġsha nk
Ġsha rps
as y
as ing
as ant
as ps
as hed
ent ous
ent ine
ent ious
Ġk in
Ġk ing
Ġk ings
Ġk itchen
Ġan guish
Ġan gry
Ġan atom
Ġan cestors
Ġhis s
Ġhis t
ra nd
ra id
ra ise
ra ct
ra pe
ra ught
ra kes
ra ze
ĠTh row
ĠTh ink
ĠTh rows
ĠG all
ĠG ro
ĠG rind
ĠG uest
ĠG orged
ĠG raze
ear d
hi a
hi est
hi fied
ath y
ea ch
ea kest
Ġshe et
Ġshe ath
Ġshe lves
Ġbut cher
art er
ru n
ru ng
ru ms
ru ised
ru nk
ru sion
if f
if ter
if ici
if ied
Ġre ar
Ġre qu
Ġre de
Ġre ek
Ġre vers
Ġre ach
Ġre vol
Ġre cl
Ġre con
Ġre venge
Ġre gion
Ġre nown
Ġre verse
Ġre els
Ġre dress
Ġre lig
Ġsh in
Ġsh ore
Ġsh ower
Ġsh un
Ġsh ining
Ġsh rine
Ġsh irt
Ġsh oem
Ġsh runk
Ġsu nder
Ġsu ff
Ġsu spect
Ġdo ing
Ġdo ct
Ġdo ff
Ġdo zen
Ġdo leful
ord ing
Ġno on
Ġno ses
Ġno bly
ge on
ge lic
Ġall y
Ġall ow
Ġall ig
Ġall iance
Ġman es
Ġman ly
Ġman gle
Ġne ither
Ġne cess
Ġne gle
Ġne phe
Ġse es
Ġse mb
Ġse iz
Ġse ason
Ġse eds
Ġse verest
Ġfr ost
Ġfr ozen
Ġfr ank
Ġpr y
Ġpr ost
Ġpr ating
Ġpr inco
Ġmu mb
Ġcome st
ĠWhat e
Ġv ast
Ġv ows
Ġv anish
Ġv ict
Ġv ariable
Ġv illanous
ĠTo get
Ġsp it
Ġsp ed
Ġsp ell
Ġsp ilt
Ġsp ice
Ġsp ark
Ġsp aring
Ġsp here
Ġsp read
Ġsp ec
Ġsp ited
Ġsp its
Ġsp eech
Ġsp oken
Ġsp rung
ho pp
ter m
han ce
han kful
Ġnight s
Ġwhe els
Ġsw an
Ġsw ay
Ġsw ound
Ġsw ears
Ġsw itch
Ġsw allow
Ġsw ashing
Ġsw ung
Ġsw ifter
Ġgo eth
Ġgo vern
ure r
Ġhat ed
Ġhat red
Ġar row
Ġar gu
Ġar ise
Ġar ms
Ġar gues
Ġar med
Ġar bit
Ġar ithmetic
Ġar rives
Ġat ta
Ġat tempt
Ġat tires
Ġat omies
Ġthere of
Ġthere wit
ĠEnter s
ep ing
ep art
Ġhere tic
Ġkn it
Ġkn ot
ast ic
ĠD ay
ĠD ove
ĠD el
ĠD ire
ĠD own
ĠD ig
ĠD ian
ĠD oting
ĠD rinks
ĠD ispl
ĠD eny
ĠD riving
ĠD rums
ĠD epart
am p
am er
am ity
us hing
us cad
Ġam erce
Ġcan op
Ġcan non
Ġcan cell
Ġgood ly
Ġgood man
Ġgood fell
th s
th ou
th ough
th read
Ġsay ing
qu er
qu et
qu ake
qu ence
qu ering
qu ean
qu isite
Ġr ood
Ġr ind
Ġr ound
Ġr od
Ġr ise
Ġr op
Ġr ains
Ġr att
Ġr ote
Ġr ott
Ġr ash
Ġr ocks
Ġr ites
sel me
sel ves
ĠFor get
ĠFor give
ĠFor bid
alt y
gu age
gu ised
gu iled
Ġlet s
Ġlet ting
ic ine
od ig
Ġho le
Ġho ars
Ġour selves
Ġbl ame
Ġbl iss
Ġbl az
Ġbl ister
Ġbl aze
Ġbl add
Ġbl ubbering
Ġbl ades
Ġbl ushing
ort s
ort un
ort hiest
Ġtoo l
ate st
ap s
ap pare
ap pl
Ġmar r
Ġmar gent
Ġmar vellous
Ġmar chpan
Ġcon ta
Ġcon ven
Ġcon cl
Ġcon ceive
Ġcon jur
Ġcon sequ
Ġcon ceit
Ġcon str
Ġcon voy
Ġcon vey
Ġcon stable
Ġcon ceal
Ġcon vert
Ġcon quer
ĠTybalt s
Ġj aw
Ġj ew
ĠY e
ĠY on
Ġor b
Ġor ison
au b
Ġout cry
Ġart ifici
pp er
pp ing
Ġlady ship
Ġlady bird
Ġtheir s
fe w
fe ather
fe min
Ġmad ly
Ġmad men
Ġmad ness
man n
Ġpo x
Ġpo per
Ġpo ised
ble eding
Ġwor st
Ġwor th
Ġwor thy
Ġdis per
Ġdis tre
Ġdis like
Ġdis member
Ġdis semb
Ġdis grace
Ġdis guised
Ġqu it
Ġqu ince
Ġqu iver
Ġqu ivers
Ġqu ote
Ġqu alities
Ġqu arter
Ġal ive
Ġal though
Ġsl ack
Ġsl op
Ġsl ip
Ġsl ug
Ġsl uttish
ink le
ĠMy self
Ġtime less
Ġag ate
Ġag ile
Ġag ree
Ġag rees
Ġhast y
Ġhast en
Ġhast es
Ġun att
Ġun ivers
Ġun made
Ġun rest
Ġun nat
Ġun ple
Ġun stain
Ġun cover
Ġun worthy
Ġun ruly
Ġun reason
Ġun seen
Ġun stuff
Ġun advised
Ġun mann
Ġlo ins
Ġlo lling
Ġlo gger
ish ment
Ġmust y
age ous
Ġpre st
Ġpre dom
Ġpre vail
Ġpre dic
Ġpre fix
ct ing
ct ise
Ġtru ce
Ġtru mp
Ġtru nk
Ġtru ckle
Ġab ound
Ġab use
Ġab bey
Ġab oard
Ġab sol
Ġlook ing
Ġlook ed
Ġpl ant
Ġpl ate
Ġpl aint
Ġpl ats
Ġpl ants
ĠCome s
Ġlike ly
ĠThis be
Ġsweet er
Ġsweet ing
Ġsweet en
Ġsweet ly
Ġsweet meats
erv ing
Ġlight ly
Ġlight ness
Ġlight ens
Ġen pier
Ġen force
Ġen amour
Ġen gross
Ġen sign
Ġen rich
Ġhouse wife
ps y
Ġbr ine
Ġbr ought
Ġbr isk
Ġbre d
Ġbre ad
Ġbre ac
Ġbre athe
Ġbre athes
Ġheart less
ĠAs cend
ather s
urn ed
urn ished
Ġlive d
Ġlive st
Ġlive ly
Ġwhere in
Ġwhere on
de ad
de ath
de vour
Ġtw ist
Ġtw inkle
Ġmis ta
Ġmis ty
Ġmis be
Ġmis chan
Ġmis give
Ġmis chie
Ġmis appl
Ġwho e
ĠIn herit
ĠIt aly
Ġex pect
Ġex ec
Ġex hales
Ġex quisite
Ġcou ch
Ġcou ple
Ġcou ghing
Ġcall ing
Ġheaven ly
em ing
os ite
Ġwo lvish
Ġback s
Ġname d
Ġcl out
Ġcl ock
Ġcl oak
Ġcl othes
Ġcl asps
Ġcl aps
Ġus urer
ĠWhere to
aw ay
Ġpart ing
Ġpart ed
Ġpart ly
Ġpart ies
ĠSo on
ĠSo le
ĠSo jour
ĠBe ats
ĠBe guiled
Ġru st
Ġru ng
Ġru sh
Ġfl ood
Ġfl ag
Ġfl int
Ġfl ask
Ġfl irt
Ġfl ourishes
rave ning
ne y
ne ven
pe red
pe rer
per y
per ch
per for
per ience
ĠU tter
ĠU ndraw
ĠU neven
Ġaw aking
Ġmen ace
Ġfo es
Ġfo lks
ĠServant s
ĠV I
ĠV ile
ĠV illain
ĠV irtu
ĠV itra
Ġold er
ĠHow lings
ĠGo ing
Ġsc ore
Ġsc ant
Ġsc are
Ġsc ale
Ġsc ars
Ġsc atter
Ġsc ope
Ġsc athe
Ġsc ourge
Ġsc rape
Ġch id
Ġch inks
Ġch url
Ġcha in
Ġcha se
Ġcha os
Ġcha ste
Ġcha pless
Ġcha stity
Ġcha riot
Ġhence for
Ġstre am
ice d
Ġfind ing
ans gression
ĠAn y
ĠAn swer
ĠAn cient
ĠAn gelic
ĠAn selme
ĠWe eping
Ġlie f
Ġlie ge
Ġke pt
Ġke ys
Ġwr ing
Ġdre ss
Ġdre adful
Ġthink ing
Ġbed aub
tre es
tre ss
tre ading
Ġaf ire
Ġaf fect
Ġaf raid
Ġaf eard
Ġban krupt
Ġban quet
Ġfear fully
Ġchi ef
Ġgre atest
ol our
ol ogy
ol atry
Ġdes cry
Ġdes cent
Ġyoung er
less ly
ĠSe ek
Ġeart hen
Ġkeep ers
Ġchild ish
Ġchild hood
ase d
op le
Ġri d
Ġri pe
Ġri dd
Ġri band
Ġri pen
Ġri gour
Ġdown right
Ġhead str
ĠMerc y
Ġearth quake
Ġfriend ly
ag es
ag ined
Ġlea st
Ġlea ps
Ġlea ving
ĠSt uff
ĠSt ran
ĠSt raining
ĠSt rike
ĠSha me
ĠSha ke
ĠSha lt
ĠSha rp
Ġneed ly
Ġneed ful
Ġprince s
Ġeye less
Ġdream ers
sw ift
Ġsound s
Ġle an
Ġle ans
Ġle vel
Ġche ers
Ġche veril
Ġbeg one
Ġbeaut ify
led ge
Ġfaith fully
mp athy
Ġmove s
Ġmove th
Ġwh it
Ġwh ither
Ġwh ining
Ġwh isper
Ġwar ning
Ġwar ns
Ġbid s
Ġbet ake
Ġbet ossed
Ġint erest
Ġint rusion
oom ing
ass hopp
Ġsun set
cc ata
ient ly
Ġtr ain
Ġtr ooping
Ġtr ansgression
Ġput ting
ĠRe ad
ĠRe ady
ĠRe be
ĠRe vol
ĠRe ceive
ĠRe vive
ĠRe ads
ĠRe bell
ĠRe member
Ġend s
Ġend art
Ġrest s
Ġrest orat
ĠDo ing
Ġrun n
Ġrun s
Ġrun agate
Ġrun away
fort able
un ed
Ġtalk ed
Ġsm ock
Ġsm atter
Ġco il
Ġco ach
Ġco cke
Ġco als
ĠAl one
ĠAl ive
ĠAl ike
Ġoff ence
Ġstr ains
Ġstr atage
ĠNot ing
Ġuse st
Ġunt aught
Ġunt alk
Ġunt angled
Ġunt hankful
vers ity
vers ary
Ġgentleman like
Ġbreath s
av oury
ms on
pt ial
Ġra il
Ġra ging
Ġad o
Ġad jac
Ġad mired
Ġad vise
Ġad versary
Ġhapp iness
Ġhapp ily
Ġsoon er
Ġhands ome
for m
Ġsin ners
Ġsleep ing
Ġmaster less
Ġbod es
Ġbod ies
Ġcourt s
Ġcourt ier
Ġcourt iers
Ġcourt ship
ĠLa ura
Ġsend s
Ġsend ing
Ġconf ounds
Ġconf idence
Ġconf ines
Ġcomp ass
Ġcomp ounds
up y
Ġtre ad
Ġtre es
Ġtre asure
Ġtre ason
Ġtre ac
Ġtre sp
Ġtre ads
Ġton gues
Ġturn ing
Ġser ious
Ġset s
Ġset tled
Ġway ward
Ġlate ly
Ġlaw yers
Ġdraw s
Ġdraw er
Ġnor th
Ġchan ges
Ġtomb s
Ġper il
Ġper fection
Ġper use
Ġper verse
Ġper jured
Ġper juries
Ġper dona
Ġper jury
Ġper nicious
Ġper form
Ġpass age
Ġbear ing
Ġforg ive
ĠHer o
ĠHer self
Ġdisc ern
Ġdisc harged
Ġdisc reet
Ġdisc overed
Ġdisc olour
Ġcomfort ed
Ġcomfort able
ĠUn cle
ĠUn pl
ĠUn seem
ĠUn worthy
ĠUn com
ĠUn fold
ĠUn wield
ĠUn happy
Ġapp ears
Ġapp ert
Ġapp etite
Ġmon arch
Ġmon ster
Ġbur ial
Ġdare d
Ġdare st
ĠThan k
sed ucing
Ġhu ge
Ġpri vy
Ġgr ove
Ġgr asshopp
Ġmean ing
Ġreme dies
Ġpro fan
Ġpro fess
Ġpro gress
Ġpro ceeding
Ġpro verb
Ġpro perer
Ġjo cu
Ġthank ings
Ġplay ing
Ġbring ing
Ġclose t
Ġclose ly
Ġquarrel s
ab sol
ff ic
pare nt
ub stantial
Ġve ssel
Ġsad ly
Ġmin im
Ġmin ion
Ġmin ister
Ġmind s
Ġmind ed
Ġbound s
Ġbound less
Ġboy s
ist ant
Ġthr ills
Ġhigh way
Ġhigh most
Ġple ading
Ġple asant
Ġpur ge
Ġpur cha
Ġpur bl
Ġpur gat
Ġpardon ing
Ġeven ing
Ġfortu nes
Ġdel icious
ĠHold ing
Ġfare s
Ġkind ly
Ġva ulty
hold er
Ġarm our
Ġcont aining
Ġcont ract
Ġflower ing
Ġgreat er
ban ishment
ud es
Ġtri ed
Ġtri ck
Ġtri but
Ġtri fling
ress ing
ress ly
Ġfight ing
Ġfire d
Ġfire s
Ġlear ning
Ġlast ing
Ġdu cats
Ġdu mps
Ġhide ous
Ġgl ove
Ġgl ide
Ġgl ory
Ġgl orious
Ġgl ooming
Ġgra cious
Ġgra vity
ĠSp anish
ĠSp read
ĠSp akest
ĠSp eakest
Ġstir s
Ġstir ring
Ġstir reth
Ġdev out
Ġask ing
Ġres ort
Ġres ign
Ġres idence
Ġnoble man
ĠDe ad
Ġro e
Ġro ar
Ġro gue
Ġro oteth
Ġro pery
Ġdisp ose
Ġdisp atch
Ġdisp ute
Ġdisp arage
Ġdisp raise
Ġdist ance
Ġdist raught
Ġcloud y
Ġflow ed
Ġflow ered
Ġfollow ing
Ġfollow ers
Ġwrit ing
Ġwrit es
Ġserve s
ac entio
sh ine
Ġsing er
Ġsing leness
Ġmerc hant
Ġmerc hand
Ġwant ons
Ġbook s
Ġfeel ing
Ġlament ation
Ġlament ations
Ġden ied
Ġden ote
Ġdru m
Ġdru dge
Ġdark ness
Ġpen ury
Ġpen cil
Ġpen alty
Ġpast ry
Ġopp ress
Ġopp osed
Ġopp osition
Ġopp ortun
Ġopp osite
ĠAll a
Ġgu ide
Ġbese eming
ĠSh ot
ĠSh ut
ĠSh uts
Ġunder take
Ġrep ly
Ġrep ort
Ġrep ose
Ġrep utation
Ġrep liest
Ġrep etition
Ġshort ly
Ġstran ger
Ġstran gled
Ġstran gers
lic al
tw ill
tw ould
tw ixt
tw ere
ĠK ing
ĠK isses
ĠK illing
Ġacc ents
Ġacc ustom
Ġacc ording
Ġburn s
Ġburn eth
Ġless er
Ġdri er
Ġdri ed
Ġdri veth
Ġdri zz
Ġdri velling
Ġcare ful
Ġcare lessly
Ġcold ly
Ġhome ly
Ġpal y
Ġover set
Ġover whel
Ġover heard
ĠAr ms
Ġgir ls
Ġbel ow
Ġbel ong
Ġbel oved
Ġbel onging
atis fied
ĠRet ain
ĠRet urn
ĠRet iring
ĠRet orts
ĠBen edic
Ġstri ve
Ġsole ly
Ġsub stantial
Ġsub mission
Ġsupp le
Ġprove s
ĠDraw n
ĠDraw s
Ġran cour
Ġcons ume
Ġcons pires
Ġcons idering
Ġjest s
Ġbrother hood
Ġexile d
Ġexcu ses
Ġexcu sed
pect ing
Ġaff ords
Ġaff right
Ġaff ray
Ġaff lict
ĠStay ing
Ġjoint ure
Ġthrough out
Ġhonest y
Ġhonest ly
cher s
gr ound
gr anate
way s
Ġent ers
Ġimp ute
Ġimp atient
Ġimp each
Ġact s
Ġact ing
Ġact ed
Ġact ion
Ġsk ill
Ġsk ins
Ġsk ains
Ġsk itless
Ġsatis faction
Ġwoo es
Ġwound s
Ġbow l
ister ous
Ġfurt hest
Ġlad der
Ġlam p
Ġlam ps
Ġdou ble
Ġdou bl
Ġdance d
Ġcut t
Ġcut ting
Ġcri ed
Ġcri cket
Ġcri mson
Ġcho p
Ġcho king
Ġcry stal
ĠTurn ing
Ġpower ful
Ġgro ss
ĠWas h
Ġhang ing
Ġhang ed
ĠSu ps
ĠSu pper
ĠSw itch
ĠSaint s
ĠCh rist
ĠCan not
ĠCan ker
Ġdep th
Ġdep rived
ĠPr oud
ĠPr odig
Ġret ire
Ġshri ved
Ġval idity
Ġvoice s
Ġattend ing
Ġattend ed
ĠDid o
Ġconsent s
Ġpoint s
Ġbreak s
Ġcount s
Ġcount ry
Ġmaiden hood
Ġfriends hip
Ġbright ness
Ġlearn s
cl out
con er
chan ging
Ġim mediately
Ġim agined
Ġter ms
Ġtort oise
hen s
Ġsen ses
Ġsent entious
Ġsimp les
Ġsimp leness
Ġmet eor
Ġmod ern
Ġmod erately
Ġmask s
Ġmoon shine
Ġwa it
Ġwa iting
Ġwalk ing
Ġbus y
Ġbus ied
Ġbraw ling
Ġbrief ly
Ġfe es
Ġfe ign
Ġfe athers
Ġfore ign
Ġfore head
Ġfore father
Ġfore run
Ġlent en
Ġdan k
Ġdam nation
Ġdiv ision
Ġdiv orced
Ġdiv ideth
Ġcour ageous
Ġcru sh
Ġcond emned
Ġgi psy
Ġgave st
Ġbeat en
Ġhair s
Ġemp loy
ĠBl ind
ĠBl ack
ĠBl iss
ĠBl ister
ĠBl ubbering
Ġforsw ear
Ġdef ence
Ġdef iance
Ġdef low
Ġsoft en
Ġsoft est
Ġshut s
Ġprom ise
Ġprom pt
Ġprom ised
Ġprom otion
Ġprom pter
Ġproud s
Ġvis age
Ġvis iting
Ġvow el
Ġspirit s
Ġknave s
Ġhope ful
Ġconjure d
Ġseek s
Ġwors hipp
Ġslay s
Ġprepare d
Ġtrust y
Ġexce ss
Ġchar m
Ġchar nel
Ġbegg ary
Ġbegg ars
Ġbegin ners
Ġsmile st
Ġhum orous
Ġremove d
co ated
ix ity
pl ace
sp okes
Ġur ging
Ġenter tain
Ġty ing
Ġty ran
Ġtea m
Ġtast ed
Ġsme ll
Ġsme lt
Ġsme lling
Ġsme lls
Ġsear chers
Ġsail s
Ġwond ering
Ġwond rous
Ġble eds
Ġble eding
Ġborn e
Ġbaw dy
Ġbless ing
Ġbless ings
Ġbud s
Ġbud ge
Ġfal coner
Ġfaint ly
Ġfier ce
Ġlod ge
Ġlod ges
Ġdr inks
Ġdove s
Ġdry beat
Ġdate less
Ġdwell s
Ġthrust s
Ġcir cle
Ġcir cled
Ġcal amity
Ġcure s
Ġcurt ain
Ġcarri es
Ġcarri age
Ġpar amour
Ġpar lous
Ġpain ter
Ġodd s
Ġodd ly
Ġocc upy
ĠAd am
ĠAd ieu
ĠAd vances
ĠAd versity
Ġbeast s
Ġinter r
Ġinter cess
Ġinter rupt
Ġinter changing
ĠWould st
Ġhar k
Ġhar sh
ĠSus pecting
Ġstar ve
Ġstar ved
Ġstar veth
Ġstain less
Ġstumb le
Ġstumb led
Ġstumb ling
Ġstumb lest
Ġsteal s
Ġsteal th
ĠNe ver
ĠNe ither
ĠNe ws
Ġweak er
ĠHad st
Ġass ure
Ġass ailing
Ġass oci
Ġass istant
Ġfast er
Ġfrown s
Ġfrown ing
Ġvain ly
Ġvirtu es
Ġspeed y
Ġgoss ips
Ġgoss amer
Ġpost erity
Ġunl ook
Ġuncle an
Ġpres age
Ġpres erving
Ġabro ach
Ġpla gues
Ġenc amp
Ġbro ken
Ġhearts ick
Ġextre me
Ġextre mity
Ġextre mes
Ġextre mities
Ġcounter vail
ĠServing man
ĠYoung er
Ġscar f
Ġscar ce
Ġwrong ed
Ġdesp ite
Ġdesp ised
Ġright eous
ĠStand s
Ġcheer ly
Ġcheer ful
Ġwarm th
Ġbetw itched
Ġsmall est
Ġcover t
Ġchance s
Ġbury ing
Ġprick s
Ġprick ing
Ġpurp le
Ġcontr adict
Ġrespect s
Ġrespect ive
Ġbird s
Ġdrunk ard
Ġwretched ness
Ġconsort ed
Ġdepart ed
Ġsumm ers
Ġsense less
Ġcondu it
Ġhumour s
Ġtouch ing
Ġmurde red
Ġlaugh s
Ġviol ence
bl ood
che ering
cure d
ec ost
gg art
now ledge
su ited
sha ft
sha pen
sha ped
wor ths
wear ied
Ġut tered
Ġid le
Ġid les
Ġid olatry
Ġord ained
Ġta vern
Ġap ology
Ġadd le
Ġadd ed
Ġsau ce
Ġserv ants
Ġfis her
Ġfis hes
Ġfis hified
Ġfit s
Ġfel on
Ġfest ering
Ġfree zes
Ġlan e
Ġlan guish
Ġlan guage
Ġlust ier
Ġdire ful
Ġdire ction
Ġnu ptial
Ġcr otche
Ġcle ar
Ġcle ft
Ġcle ars
Ġcook s
Ġcock atri
Ġcross ing
Ġheel s
Ġhealth s
Ġhealth some
Ġhood wink
Ġpack ed
Ġpack thread
Ġpare ntage
Ġpiece s
Ġgru b
Ġgru bs
Ġgru dge
Ġgrie ve
Ġgrie vance
Ġgrie vances
Ġbeh oveful
Ġbegu n
Ġbegu il
Ġbegu iled
Ġinf ant
Ġinf old
Ġinf inite
Ġinv ite
Ġinv ited
Ġinv ocation
Ġmed icine
ĠMis carri
ĠMis tress
ĠSc aring
Ġef femin
ĠCon ceit
ĠCon tempt
ĠCon tent
Ġste ep
Ġste ads
Ġste erage
Ġsto le
Ġsto pp
Ġsto ccata
Ġstart les
Ġstif led
Ġdeal ing
ĠJack s
ĠHap ly
Ġfail s
Ġfaire st
Ġange l
Ġange ls
Ġange lical
ĠGre en
Ġreve l
Ġreve ls
Ġreve rend
Ġsuck ing
Ġsep arated
Ġsever ing
Ġsever al
Ġsever ity
Ġprison er
Ġamb ling
Ġamb igu
Ġamb uscad
Ġhol p
Ġdish clout
Ġuns avoury
Ġuns ubstantial
Ġuns atisfied
Ġunha llow
Ġunha ppy
Ġunha rm
Ġcomm ission
Ġprevent ed
Ġpluck s
Ġmisadventure d
Ġexp ire
Ġexp osition
Ġexp ressly
Ġclim bs
Ġgreet ings
Ġdesire st
Ġtrouble d
Ġendure d
Ġcoll ar
Ġcoll ars
Ġcoll iers
Ġquarre lled
Ġcompl ain
Ġtremb les
Ġmonth ly
Ġprov oke
Ġprov ision
Ġprov ided
Ġjoin er
Ġvex ed
Ġtriump hant
Ġfellows hip
ĠFrancis can
Ġentreat ed
Ġimport uned
Ġgroan ing
ĠHencefor th
Ġmaidenhead s
Ġwax es
Ġbeggar ly
Ġpilgrim age
Ġfalse hood
Ġunluck ily
Ġviolent ly
Ġwater y
Ġstruck en
boy s
ex perience
fan ers
foot ed
lo gic
maid s
sick ness
ĠQu een
ĠQu arrel
Ġte at
Ġte xt
Ġtit he
Ġtit le
Ġtra itor
Ġtra ffic
Ġtable s
hel or
heart ed
Ġsy cam
Ġsy mpathy
Ġsur cease
Ġsur geon
Ġsal utation
Ġsal uteth
Ġshi ft
Ġshi eld
Ġsort ed
Ġsign al
Ġsign ify
Ġsister s
Ġsister hood
Ġsnow y
Ġmor al
Ġmor sel
Ġmart ial
Ġmart yr
Ġwin ter
Ġwin ning
Ġwink ing
Ġwaken ed
Ġbo xes
Ġbo isterous
Ġbra gs
Ġbra ggart
Ġbask et
Ġbask ets
Ġfle er
Ġfle cked
Ġfant asy
Ġfant astic
Ġfun eral
Ġfright ed
Ġlen ity
Ġlen gt
Ġlour ing
Ġlab our
Ġlab el
ĠIm mediately
ĠIm mod
Ġdro p
Ġdro ps
Ġdign ity
Ġdign ified
Ġthin ly
Ġthri ve
Ġthri ce
Ġniece s
Ġcur ious
Ġcur few
Ġcra m
Ġcra cking
Ġcand le
Ġcand les
ĠTor ch
ĠTor ments
Ġhild ing
Ġhild ings
Ġpe evish
Ġpe ople
Ġpul se
Ġpul ing
Ġpra ised
Ġpra ctise
Ġpath ways
Ġport ly
Ġport entous
Ġpun ish
Ġpun ished
Ġpursu ing
Ġpursu ed
Ġow e
Ġow es
stain ed
ĠAb ove
ĠAb ate
ĠAf ter
ĠAf fection
Ġbecome d
Ġbecome s
lest ick
ĠWh ither
ĠWh iter
Ġissu e
Ġissu ing
ĠBear ing
ĠBel ieve
ĠBel onging
ĠChe erly
ĠChe quering
ĠCom pare
ĠCom mend
ĠOpen s
Ġfors aken
Ġfors ooth
Ġstab s
Ġstab bed
Ġliqu or
Ġliqu id
Ġlimit s
Ġdeare r
Ġdeare st
ĠLo vers
ĠLu cio
ĠLu centio
ĠLea p
ĠLea ve
Ġwest ward
ĠPl ay
ĠPl acentio
ĠPro portion
ĠPro faners
ĠEn ough
ĠEn viron
Ġherald s
ĠGrief s
Ġbutt on
Ġref use
Ġref lex
Ġrece ipt
Ġrece pta
Ġshrie k
Ġshrie ks
Ġmanner ly
Ġpror ogue
Ġpror ogued
Ġprol ogue
Ġprol ixity
Ġprop ortion
Ġprop agate
Ġmuff le
Ġmuff led
Ġsple en
Ġsple ndor
Ġspid er
Ġspid ers
Ġhop es
Ġjour ney
Ġjust ly
Ġjust ice
Ġunb ound
Ġunb ruised
Ġunf irm
Ġunf urnished
Ġunk ind
Ġunk nown
Ġunw ashed
Ġunw orthiest
Ġcomb ine
Ġcomb ined
Ġabh ors
Ġabh orred
Ġabu ses
Ġabu sed
Ġplain ly
Ġenj oy
Ġenj oin
Ġearl iness
Ġmist aking
Ġmist emper
Ġclub s
ĠBeg ot
Ġfoll ows
Ġfoll ower
ĠVal entio
ĠVal entine
Ġstret ch
Ġstret ches
Ġwhore son
Ġwhist le
Ġwhist les
Ġintend ed
Ġbestri de
Ġbestri des
Ġtorment ed
Ġconfusion s
Ġserp ent
Ġserp ents
Ġmerri ly
Ġmerri ment
Ġdisco ver
Ġdisco very
Ġhung ry
Ġprocure s
Ġmistres ses
Ġcontin ue
Ġcontin uance
Ġresol ve
Ġresol ution
Ġdisple asure
Ġdisple ased
Ġdistill ed
Ġdistemper ature
Ġpens ive
Ġpenny worths
lict ion
Ġaccid ent
Ġaccid ents
Ġoverth rows
Ġoverth rown
Ġsubject s
Ġdanger ous
Ġdivine st
ĠHelen a
Ġdrag on
Ġharlot s
Ġharlot ry
Ġutter s
Ġutter ance
Ġmedl ar
Ġmedl ars
ĠHapp iness
ĠHapp ily
Ġholid ay
Ġholid ame
Ġdishonour able
Ġcomplime nt
Ġcomplime nts
bearer s
Ġschool boys
Ġsacrifice d
Ġsacrifice s
Ġbandy ing
Ġthreaten ed
Ġcherish ing
Ġpestil ent
Ġpestil ence
ĠBeaut y
ĠBeaut iful
Ġhereabout s
Ġjaunt ing
?-- '
Tw ixt
bet ter
bel oved
bro ad
cat cher
cup board
do or
dart ing
dro pping
div ining
fing er
fath om
go vern
gall ant
hoo p
hour s
ju iced
mak ers
mong ers
pin ion
por ate
pac ing
rouse d
she athed
spe eding
tiz ed
upt urned
widow ed
Ġer rand
Ġeter nal
Ġign orance
Ġvers al
Ġtas sel
Ġtack led
Ġtard y
Ġtest ify
Ġtilt s
Ġtem pest
Ġtig ers
Ġtun ers
Ġtetch y
Ġtrace s
Ġtipt oe
hetu a
Ġach ing
Ġack nowledge
Ġamend ed
Ġalder man
Ġacquaint ance
Ġaugment ing
Ġsor ry
Ġsid es
Ġsqu irrel
Ġsav age
Ġsaf ety
Ġmat ron
Ġmid wife
Ġmour ners
Ġmone y
Ġmant le
Ġmil k
Ġmast ers
Ġmam met
Ġmand rakes
Ġmile s
Ġmock er
Ġmount ain
Ġmixt ure
Ġwre ak
Ġwing ed
Ġwil ful
Ġwand ers
Ġwave rer
Ġwick ed
Ġwadd led
Ġwrench ing
reve rence
Ġbar gain
Ġbap tized
Ġbau ble
Ġbale ful
Ġbac helor
Ġbuck lers
Ġbatt lements
Ġboot ed
Ġfet tle
Ġfur ious
Ġfart hest
Ġfil m
Ġfurn ish
Ġfem ale
Ġfig ure
Ġfount ains
Ġfidd lestick
Ġlar ge
Ġlur k
Ġles sen
Ġlack s
Ġlinea ment
Ġdow dy
Ġdir ges
Ġdig ging
Ġdaint y
Ġdrows y
Ġdedic ate
Ġthie vish
Ġthro ats
Ġthwart ed
Ġnar row
Ġnour ish
Ġnap kins
Ġnun s
Ġnumb ers
Ġnipp le
Ġcent re
Ġcord ial
Ġcap tain
Ġcop est
Ġcert ain
Ġcait iff
Ġcaeter a
ĠTart ar
ĠTick ling
ĠTemper ing
ĠTiber io
ĠTrans parent
Ġheare th
Ġhur ry
Ġhind s
Ġhook s
Ġhurd le
Ġhumb ly
Ġhymn s
Ġhorri ble
Ġpome granate
Ġpent ecost
Ġpru dence
Ġpant ry
Ġpep pered
Ġphy sic
Ġpunt o
Ġpoul tice
Ġpars on
Ġpier ced
Ġpup il
Ġpip es
Ġpuff s
Ġphra se
Ġpierc ing
Ġoper ation
Ġobs cured
Ġyell ow
Ġyest ernight
Ġyield ing
stool s
ĠAur ora
ĠAnt ony
ĠAth wart
ĠApp ear
ĠAdd ing
ĠAcc ursed
ĠAff liction
ĠApri l
Ġgle ek
Ġgri ping
Ġgid dy
Ġgent ler
Ġgap es
Ġgadd ing
Ġgorge ous
Ġbeet le
Ġbede ck
Ġbene fice
Ġbehest s
Ġbescre en
Ġyounge st
Ġoffe red
ĠRem nants
ĠRidd ling
Ġinfect ious
Ġinex orable
Ġinaus picious
Ġincor porate
Ġinund ation
ĠWive s
ĠWise ly
Ġmeas uring
Ġmess ages
Ġmeag re
Ġmedd le
Ġmelan choly
Ġhaught y
ĠMart ino
ĠMaint ains
ĠMurd er
ĠMiss hapen
ĠSove reign
ĠSim on
ĠSear ch
ĠSound post
ĠSta bs
ĠSub tly
ĠSnatch ing
Ġemb race
Ġeag le
Ġeaster n
Ġelf locks
Ġelo quence
Ġeste em
Ġemper or
ĠBra gs
ĠBalt hasar
ĠBond age
ĠBetr oth
ĠCour age
ĠCond emned
ĠCop hetua
ĠCull ing
ĠCons ort
ĠClub s
ĠCynt hia
ĠCleop atra
Ġstro ke
Ġstud y
Ġsteed s
ĠFeel ing
Ġlimp ing
ĠNUR SE
Ġdepe nd
Ġdefor mities
Ġdecre ed
Ġdecease d
Ġdexter ity
Ġump ire
ĠJame s
ĠLiv ia
ĠLift s
keep er
ĠHea ven
ĠHunt ing
ĠPho ebus
ĠPerc hance
ĠPursu ed
ĠPetr arch
ĠPhaeth on
ĠPetru cio
ĠEart h
ĠEthi ope
Ġsoci able
Ġsociet y
Ġassemb ly
Ġfamil iar
Ġfashi on
Ġshank s
Ġanatom y
ĠGall op
ĠGro an
ĠGrind stone
ĠGuest s
Ġrequ est
Ġrede em
Ġreek y
Ġrevers o
Ġrevol t
Ġrecl aim
Ġrecon cile
Ġrelig ion
Ġshower ing
Ġshun n
Ġshoem aker
Ġsuff er
Ġsuspect ed
Ġdoct rine
Ġallig ator
Ġnecess aries
Ġnegle cting
Ġnephe w
Ġsemb lance
Ġseiz e
Ġprost rate
Ġprinco x
Ġmumb ling
Ġvict ory
ĠToget her
Ġspice s
Ġspark ling
Ġsphere s
Ġspec ial
Ġswound ed
Ġgovern ment
Ġargu ment
Ġarbit rating
Ġatta ch
Ġtherewit hal
Ġheretic s
ĠDel ay
ĠDire ct
ĠDig ressing
ĠDispl ant
Ġcanop y
Ġgoodfell ows
Ġrod e
Ġrop es
Ġratt ling
Ġrott en
ĠForget ting
ĠForbid den
Ġblaz on
Ġblister s
Ġbladd ers
appare ll
Ġmarchpan e
Ġconta gion
Ġconven iently
Ġconcl udes
Ġconjur ations
Ġconsequ ence
Ġconstr ains
Ġjaw s
Ġjew el
Ġorison s
Ġartifici al
Ġpoper in
Ġdisper se
Ġdistre ssed
Ġdissemb lers
Ġquince s
Ġquiver ing
Ġunatt ainted
Ġunivers al
Ġunnat ural
Ġunple asing
Ġunreason able
Ġpredom inant
Ġprevail s
Ġpredic ament
Ġprefix ed
Ġtrump et
Ġabsol ved
Ġplaint ain
Ġenpier ced
Ġengross ing
Ġbreac hes
devour ing
Ġtwist ed
Ġmisbe haved
Ġmischan ce
Ġmisgive s
Ġmischie f
Ġmisappl ied
Ġexec ution
ĠSojour n
perfor ming
ĠUndraw s
ĠVirtu e
ĠVitra vio
Ġscale s
Ġhencefor th
ĠAngelic a
Ġaffect ing
Ġchief ly
ĠSeek ing
Ġridd ling
Ġripen ing
Ġheadstr ong
ĠStran ge
Ġwhisper ing
ĠRebe ck
ĠRevol ts
ĠRebell ious
ĠRemember ing
Ġrestorat ive
Ġcoach makers
Ġcocke rel
Ġstratage ms
Ġunthankful ness
Ġadjac ent
Ġtreac herous
Ġtresp ass
ĠUnpl agued
ĠUnseem ly
ĠUncom fortable
ĠUnwield y
Ġappert aining
Ġgrasshopp ers
Ġprofan e
Ġjocu nd
absol ver
Ġvessel s
Ġpurcha se
Ġpurbl ind
Ġpurgat ory
Ġdelicious ness
Ġtribut ary
Ġdisparage ment
Ġmerchand ise
Ġopportun ity
Ġdrizz le
Ġoverwhel ming
ĠBenedic ite
Ġafflict ed
Ġdoubl et
ĠChrist ian
ĠProdig ious
Ġmaidenhood s
Ġemploy ment
Ġdeflow ered
Ġtyran nous
Ġintercess ion
Ġassoci ate
Ġnuptial s
Ġcrotche ts
Ġcockatri ce
ĠMiscarri ed
Ġeffemin ate
Ġambigu ities
Ġambuscad oes
experience d
Ġsycam ore
Ġfantastic oes
Ġlengt hens
ĠImmod erately
ĠEnviron ed
Ġrecepta cle
