{
  "version": "1.0",
  "truncation": null,
  "padding": null,
  "added_tokens": [
    {
      "id": 0,
      "content": "<s>",
      "single_word": false,
      "lstrip": false,
      "rstrip": false,
      "normalized": false,
      "special": true
    },
    {
      "id": 1,
      "content": "<pad>",
      "single_word": false,
      "lstrip": false,
      "rstrip": false,
      "normalized": false,
      "special": true
    },
    {
      "id": 2,
      "content": "</s>",
      "single_word": false,
      "lstrip": false,
      "rstrip": false,
      "normalized": false,
      "special": true
    },
    {
      "id": 3,
      "content": "<unk>",
      "single_word": false,
      "lstrip": false,
      "rstrip": false,
      "normalized": false,
      "special": true
    },
    {
      "id": 4,
      "content": "<mask>",
      "single_word": false,
      "lstrip": false,
      "rstrip": false,
      "normalized": false,
      "special": true
    }
  ],
  "normalizer": {
    "type": "Sequence",
    "normalizers": [
      {
        "type": "NFKC"
      }
    ]
  },
  "pre_tokenizer": {
    "type": "ByteLevel",
    "add_prefix_space": false,
    "trim_offsets": true,
    "use_regex": true
  },
  "post_processor": null,
  "decoder": {
    "type": "ByteLevel",
    "add_prefix_space": true,
    "trim_offsets": true,
    "use_regex": true
  },
  "model": {
    "type": "BPE",
    "dropout": null,
    "unk_token": "<unk>",
    "continuing_subword_prefix": null,
    "end_of_word_suffix": null,
    "fuse_unk": false,
    "vocab": {
      "<s>": 0,
      "<pad>": 1,
      "</s>": 2,
      "<unk>": 3,
      "<mask>": 4,
      "!": 5,
      "&": 6,
      "'": 7,
      ",": 8,
      "-": 9,
      ".": 10,
      ":": 11,
      ";": 12,
      "?": 13,
      "A": 14,
      "B": 15,
      "C": 16,
      "D": 17,
      "E": 18,
      "F": 19,
      "G": 20,
      "H": 21,
      "I": 22,
      "J": 23,
      "K": 24,
      "L": 25,
      "M": 26,
      "N": 27,
      "O": 28,
      "P": 29,
      "Q": 30,
      "R": 31,
      "S": 32,
      "T": 33,
      "U": 34,
      "V": 35,
      "W": 36,
      "Y": 37,
      "Z": 38,
      "[": 39,
      "]": 40,
      "a": 41,
      "b": 42,
      "c": 43,
      "d": 44,
      "e": 45,
      "f": 46,
      "g": 47,
      "h": 48,
      "i": 49,
      "j": 50,
      "k": 51,
      "l": 52,
      "m": 53,
      "n": 54,
      "o": 55,
      "p": 56,
      "q": 57,
      "r": 58,
      "s": 59,
      "t": 60,
      "u": 61,
      "v": 62,
      "w": 63,
      "x": 64,
      "y": 65,
      "z": 66,
      "Ċ": 67,
      "č": 68,
      "Ġ": 69,
      "čĊ": 70,
      "Ġt": 71,
      "he": 72,
      "Ġa": 73,
      "Ġs": 74,
      "ou": 75,
      "Ġm": 76,
      "Ġw": 77,
      "in": 78,
      "ha": 79,
      "re": 80,
      "Ġb": 81,
      "Ġthe": 82,
      "nd": 83,
      "is": 84,
      "ll": 85,
      "Ġf": 86,
      "er": 87,
      "Ġl": 88,
      "ĠI": 89,
      "it": 90,
      "Ġd": 91,
      "or": 92,
      "Ġth": 93,
      "Ġn": 94,
      "Ġc": 95,
      "on": 96,
      "ar": 97,
      "ve": 98,
      "hat": 99,
      "me": 100,
      "ĠT": 101,
      "Ġto": 102,
      "se": 103,
      "Ġhe": 104,
      "ot": 105,
      "Ġh": 106,
      "an": 107,
      "Ġp": 108,
      "Ġo": 109,
      "Ġy": 110,
      "Ġand": 111,
      "st": 112,
      "ĠA": 113,
      "Ġg": 114,
      "ing": 115,
      "Ġbe": 116,
      "ow": 117,
      "Ġyou": 118,
      "en": 119,
      "Ġof": 120,
      "et": 121,
      "at": 122,
      "ay": 123,
      "ĠR": 124,
      "ome": 125,
      "Ġin": 126,
      "le": 127,
      "ĠW": 128,
      "'s": 129,
      "Ġmy": 130,
      "Ġme": 131,
      "ur": 132,
      "Ġis": 133,
      "gh": 134,
      "ith": 135,
      "ut": 136,
      "ch": 137,
      "ce": 138,
      "ad": 139,
      "Ġha": 140,
      "ĠM": 141,
      "ĠS": 142,
      "ld": 143,
      "Ġthat": 144,
      "ir": 145,
      "ET": 146,
      "Ġthou": 147,
      "Ġnot": 148,
      "es": 149,
      "Ġe": 150,
      "ĠB": 151,
      "ĠC": 152,
      "UL": 153,
      "oo": 154,
      "Ġwith": 155,
      "ght": 156,
      "ill": 157,
      "ĠO": 158,
      "nt": 159,
      "ĠAnd": 160,
      "ed": 161,
      "ri": 162,
      "Ġfor": 163,
      "ove": 164,
      "Ġst": 165,
      "ĠF": 166,
      "Ġli": 167,
      "ĠN": 168,
      "Ġde": 169,
      "Ġu": 170,
      "ĠJ": 171,
      "Ġit": 172,
      "ĠL": 173,
      "ke": 174,
      "al": 175,
      "id": 176,
      "Ġwe": 177,
      "Ġthis": 178,
      "EO": 179,
      "MEO": 180,
      "OMEO": 181,
      "ĠROMEO": 182,
      "om": 183,
      "our": 184,
      "ĠH": 185,
      "EN": 186,
      "ĠP": 187,
      "'d": 188,
      "ĠE": 189,
      "ain": 190,
      "Ġso": 191,
      "Ġthy": 192,
      "Ġher": 193,
      "Ġlove": 194,
      "ul": 195,
      "ck": 196,
      "urse": 197,
      "Ġas": 198,
      "ight": 199,
      "ly": 200,
      "one": 201,
      "her": 202,
      "IO": 203,
      "Ġwill": 204,
      "Ġthee": 205,
      "Ġfa": 206,
      "ĠThe": 207,
      "im": 208,
      "ore": 209,
      "ver": 210,
      "IET": 211,
      "Ġsha": 212,
      "ULIET": 213,
      "ĠJULIET": 214,
      "as": 215,
      "ent": 216,
      "Ġk": 217,
      "ood": 218,
      "ould": 219,
      "omeo": 220,
      "ell": 221,
      "Ġan": 222,
      "Ġhis": 223,
      "ĠRomeo": 224,
      "ĠLA": 225,
      "ra": 226,
      "ĠTh": 227,
      "ĠG": 228,
      "RI": 229,
      "AP": 230,
      "ĠCAP": 231,
      "ULET": 232,
      "ĠCAPULET": 233,
      "ear": 234,
      "hi": 235,
      "Ġhave": 236,
      "ĠNurse": 237,
      "ath": 238,
      "ea": 239,
      "Ġ'": 240,
      "Ġshe": 241,
      "Ġbut": 242,
      "art": 243,
      "Ġhim": 244,
      "ru": 245,
      "if": 246,
      "Ġre": 247,
      "Ġsh": 248,
      "Ġsu": 249,
      "Ġdo": 250,
      "ake": 251,
      "Ġyour": 252,
      "ord": 253,
      "ant": 254,
      "Ġno": 255,
      "Ġshall": 256,
      "ge": 257,
      "Ġall": 258,
      "Ġman": 259,
      "Ġne": 260,
      "Ġup": 261,
      "il": 262,
      "Ġse": 263,
      "Ġfr": 264,
      "'ll": 265,
      "Ġpr": 266,
      "out": 267,
      "Ġmu": 268,
      "Ġon": 269,
      "Ġby": 270,
      "Ġcome": 271,
      "ĠWhat": 272,
      "AR": 273,
      "ER": 274,
      "Ġv": 275,
      "Ġwhat": 276,
      "ĠTo": 277,
      "CE": 278,
      "Ġsp": 279,
      "oth": 280,
      "Ġfrom": 281,
      "ame": 282,
      "ho": 283,
      "nter": 284,
      "ive": 285,
      "ter": 286,
      "ous": 287,
      "han": 288,
      "Ġnight": 289,
      "ĠThat": 290,
      "ine": 291,
      "OL": 292,
      "Ġwhe": 293,
      "Ġsw": 294,
      "VOL": 295,
      "Ġgo": 296,
      "ĠBut": 297,
      "ĠBEN": 298,
      "VOLIO": 299,
      "ĠBENVOLIO": 300,
      "ure": 301,
      "all": 302,
      "Ġhat": 303,
      "Ġar": 304,
      "Ġat": 305,
      "ind": 306,
      "Ġthere": 307,
      "ĠEnter": 308,
      "ep": 309,
      "Ġhere": 310,
      "Ġkn": 311,
      "ast": 312,
      "ie": 313,
      "ĠD": 314,
      "ĠFRI": 315,
      "ĠFRIAR": 316,
      "CU": 317,
      "TIO": 318,
      "am": 319,
      "ion": 320,
      "us": 321,
      "Ġam": 322,
      "ĠMER": 323,
      "CUTIO": 324,
      "ĠMERCUTIO": 325,
      "Ġcan": 326,
      "Ġgood": 327,
      "--": 328,
      "row": 329,
      "th": 330,
      "UR": 331,
      "Ġdeath": 332,
      "ss": 333,
      "Ġare": 334,
      "ENCE": 335,
      "ĠLAUR": 336,
      "ĠLAURENCE": 337,
      "ack": 338,
      "Ġsay": 339,
      "other": 340,
      "ady": 341,
      "and": 342,
      "qu": 343,
      "Ġr": 344,
      "ĠEx": 345,
      "DY": 346,
      "ĠLADY": 347,
      "hich": 348,
      "ave": 349,
      "Ġmore": 350,
      "Ġthen": 351,
      "sel": 352,
      "ĠFor": 353,
      "alt": 354,
      "gu": 355,
      "ry": 356,
      "ound": 357,
      "Ġlet": 358,
      "ic": 359,
      "od": 360,
      "Ġsir": 361,
      "Ġnow": 362,
      "Ġho": 363,
      "ook": 364,
      "balt": 365,
      "ime": 366,
      "ybalt": 367,
      "Ġour": 368,
      "Ġif": 369,
      "Ġbl": 370,
      "Ġday": 371,
      "are": 372,
      "mb": 373,
      "Ġwould": 374,
      "ort": 375,
      "Ġtoo": 376,
      "ate": 377,
      "ap": 378,
      "Ġmar": 379,
      "Ġcon": 380,
      "ers": 381,
      "ĠTybalt": 382,
      "ak": 383,
      "Ġj": 384,
      "iet": 385,
      "ĠY": 386,
      "Ġor": 387,
      "Ġhath": 388,
      "au": 389,
      "fore": 390,
      "Ġout": 391,
      "Ġsome": 392,
      "Ġart": 393,
      "pp": 394,
      "Ġone": 395,
      "Ġlady": 396,
      "Ġdead": 397,
      "el": 398,
      "Ġthan": 399,
      "Ġwas": 400,
      "ard": 401,
      "Ġey": 402,
      "self": 403,
      "est": 404,
      "eet": 405,
      "Ġtheir": 406,
      "rie": 407,
      "uliet": 408,
      "Ġfair": 409,
      "Ġknow": 410,
      "fe": 411,
      "nce": 412,
      "ouse": 413,
      "Ġmad": 414,
      "Ġthey": 415,
      "ong": 416,
      "ĠJuliet": 417,
      "Ġshould": 418,
      "hy": 419,
      "man": 420,
      "Ġmay": 421,
      "Ġpo": 422,
      "Ġsee": 423,
      "ble": 424,
      "ful": 425,
      "ng": 426,
      "ose": 427,
      "Ġwor": 428,
      "Ġdis": 429,
      "ĠWhe": 430,
      "Ġwell": 431,
      "aid": 432,
      "ond": 433,
      "Ġqu": 434,
      "Ġal": 435,
      "Ġsl": 436,
      "ink": 437,
      "Ġthem": 438,
      "ĠMy": 439,
      "Ġtime": 440,
      "Ġag": 441,
      "Ġhast": 442,
      "Ġun": 443,
      "entle": 444,
      "Ġsuch": 445,
      "ON": 446,
      "Ġtell": 447,
      "Ġdid": 448,
      "ess": 449,
      "ĠHe": 450,
      "Ġlo": 451,
      "Ġyet": 452,
      "very": 453,
      "ĠThou": 454,
      "gue": 455,
      "AL": 456,
      "ies": 457,
      "ise": 458,
      "ish": 459,
      "Ġgive": 460,
      "Ġhand": 461,
      "Ġmust": 462,
      "Ġwhen": 463,
      "ALT": 464,
      "age": 465,
      "ire": 466,
      "ĠIs": 467,
      "Ġdoth": 468,
      "Ġcom": 469,
      "Ġpre": 470,
      "Ġupon": 471,
      "ct": 472,
      "oy": 473,
      "Ġtru": 474,
      "Ġab": 475,
      "Ġmake": 476,
      "Ġthese": 477,
      "Ġlook": 478,
      "Ġpl": 479,
      "Ġgentle": 480,
      "atch": 481,
      "ĠCome": 482,
      "Ġlike": 483,
      "ĠThis": 484,
      "Ġsweet": 485,
      "io": 486,
      "Ġword": 487,
      "erv": 488,
      "Ġlight": 489,
      "ide": 490,
      "ĠPA": 491,
      "Ġmuch": 492,
      "Ġagain": 493,
      "unt": 494,
      "Ġen": 495,
      "Ġhouse": 496,
      "Ġear": 497,
      "ĠCap": 498,
      "ears": 499,
      "eak": 500,
      "ps": 501,
      "Ġbr": 502,
      "Ġbre": 503,
      "ite": 504,
      "orn": 505,
      "orrow": 506,
      "Ġheart": 507,
      "ĠAs": 508,
      "ather": 509,
      "urn": 510,
      "Ġlive": 511,
      "Ġwere": 512,
      "ilt": 513,
      "Ġwhere": 514,
      "de": 515,
      "ta": 516,
      "Ġtw": 517,
      "Ġtake": 518,
      "Ġmis": 519,
      "Ġwho": 520,
      "ince": 521,
      "ĠIn": 522,
      "ĠIt": 523,
      "Ġgone": 524,
      "irst": 525,
      "Ġex": 526,
      "ulet": 527,
      "ĠCapulet": 528,
      "Ġwhich": 529,
      "Ġnurse": 530,
      "Ġcou": 531,
      "Ġcall": 532,
      "Ġheave": 533,
      "ĠServ": 534,
      "RIS": 535,
      "ĠPARIS": 536,
      "Ġheaven": 537,
      "em": 538,
      "os": 539,
      "hed": 540,
      "Ġwo": 541,
      "Ġback": 542,
      "Ġname": 543,
      "Ġcl": 544,
      "Ġhow": 545,
      "own": 546,
      "ĠWith": 547,
      "Ġus": 548,
      "Ġnew": 549,
      "ĠExit": 550,
      "ĠWhere": 551,
      "aw": 552,
      "eunt": 553,
      "ĠčĊ": 554,
      "erc": 555,
      "ither": 556,
      "ance": 557,
      "Ġpart": 558,
      "ĠSo": 559,
      "ĠBe": 560,
      "Ġspeak": 561,
      "ĠExeunt": 562,
      "Ġmarri": 563,
      "ost": 564,
      "Ġru": 565,
      "Ġfl": 566,
      "ment": 567,
      "ĠOr": 568,
      "Ġdear": 569,
      "rave": 570,
      "ĠGod": 571,
      "Ġeyes": 572,
      "ig": 573,
      "ick": 574,
      "ne": 575,
      "pe": 576,
      "per": 577,
      "ĠU": 578,
      "Ġaw": 579,
      "Ġmen": 580,
      "Ġmine": 581,
      "Ġfo": 582,
      "onta": 583,
      "ĠWhich": 584,
      "ĠMonta": 585,
      "ĠOf": 586,
      "riar": 587,
      "raw": 588,
      "ĠServant": 589,
      "AM": 590,
      "day": 591,
      "ro": 592,
      "ĠV": 593,
      "aris": 594,
      "Ġold": 595,
      "ings": 596,
      "ĠBy": 597,
      "Ġstay": 598,
      "ĠHow": 599,
      "ĠParis": 600,
      "ĠGo": 601,
      "ĠYou": 602,
      "old": 603,
      "tis": 604,
      "Ġother": 605,
      "Ġsc": 606,
      "ity": 607,
      "Ġch": 608,
      "Ġhear": 609,
      "Ġstand": 610,
      "ĠNo": 611,
      "aint": 612,
      "ife": 613,
      "Ġcomes": 614,
      "ici": 615,
      "Ġtrue": 616,
      "ale": 617,
      "ile": 618,
      "ving": 619,
      "well": 620,
      "Ġvery": 621,
      "Ġwilt": 622,
      "ins": 623,
      "Ġfather": 624,
      "ĠIf": 625,
      "Ġcha": 626,
      "Ġhence": 627,
      "Ġhour": 628,
      "Ġstre": 629,
      "aught": 630,
      "CEN": 631,
      "able": 632,
      "ice": 633,
      "Ġfind": 634,
      "ans": 635,
      "ĠAn": 636,
      "ĠWe": 637,
      "ĠSCEN": 638,
      "ĠFirst": 639,
      "Ġlie": 640,
      "ĠNow": 641,
      "ĠThen": 642,
      "Ġblood": 643,
      "ĠSCENE": 644,
      "end": 645,
      "ock": 646,
      "Ġke": 647,
      "ough": 648,
      "Ġwr": 649,
      "Ġlord": 650,
      "Ġdre": 651,
      "Ġdie": 652,
      "Ġthink": 653,
      "ark": 654,
      "Ġbed": 655,
      "ence": 656,
      "ĠWho": 657,
      "ĠMontague": 658,
      ",--": 659,
      "BALT": 660,
      "GU": 661,
      "YBALT": 662,
      "ft": 663,
      "not": 664,
      "ty": 665,
      "tre": 666,
      "Ġaf": 667,
      "oud": 668,
      "Ġwit": 669,
      "Ġban": 670,
      "Ġfear": 671,
      "Ġlong": 672,
      "Ġchi": 673,
      "ven": 674,
      "men": 675,
      "ĠTYBALT": 676,
      "ĠAy": 677,
      "Ġgre": 678,
      "ĠWhy": 679,
      "Ġhad": 680,
      "ĠShe": 681,
      "alk": 682,
      "Ġface": 683,
      "ĠThere": 684,
      "mber": 685,
      "rief": 686,
      "GUE": 687,
      "PS": 688,
      "ace": 689,
      "ious": 690,
      "ol": 691,
      "wn": 692,
      "oul": 693,
      "Ġmaid": 694,
      "Ġboth": 695,
      "Ġdes": 696,
      "Ġyoung": 697,
      "less": 698,
      "ĠSe": 699,
      "ĠSAM": 700,
      "Ġeart": 701,
      "Ġlife": 702,
      "Ġjoy": 703,
      "ĠHere": 704,
      "aughter": 705,
      "Ġkeep": 706,
      "Ġchild": 707,
      "PSON": 708,
      "ĠSAMPSON": 709,
      "AGUE": 710,
      "TAGUE": 711,
      "ase": 712,
      "igh": 713,
      "op": 714,
      "Ġri": 715,
      "Ġtears": 716,
      "ished": 717,
      "Ġfrie": 718,
      "Ġdown": 719,
      "ary": 720,
      "Ġhead": 721,
      "Ġbeen": 722,
      "Ġbefore": 723,
      "ows": 724,
      "ower": 725,
      "les": 726,
      "leep": 727,
      "ĠMON": 728,
      "ĠMerc": 729,
      "Ġany": 730,
      "Ġpray": 731,
      "Ġcannot": 732,
      "Ġearth": 733,
      "Ġfriend": 734,
      "ĠMONTAGUE": 735,
      "ag": 736,
      "Ġlea": 737,
      "itt": 738,
      "Ġcous": 739,
      "Ġgrave": 740,
      "ĠWell": 741,
      "urs": 742,
      "utio": 743,
      "ĠMus": 744,
      "ĠSt": 745,
      "ĠSha": 746,
      "ourt": 747,
      "Ġfall": 748,
      "eace": 749,
      "Ġneed": 750,
      "Ġprince": 751,
      "Ġletter": 752,
      "Ġholy": 753,
      "Ġeye": 754,
      "Ġmade": 755,
      "Ġworld": 756,
      "Ġmarried": 757,
      "Ġaway": 758,
      "Ġdream": 759,
      "ĠMercutio": 760,
      "Ġcousin": 761,
      "NCE": 762,
      "aut": 763,
      "cond": 764,
      "ger": 765,
      "sw": 766,
      "ull": 767,
      "Ġson": 768,
      "Ġsound": 769,
      "Ġbri": 770,
      "ison": 771,
      "Ġle": 772,
      "Ġthing": 773,
      "Ġche": 774,
      "Ġbeg": 775,
      "Ġbeaut": 776,
      "led": 777,
      "urch": 778,
      "nty": 779,
      "ĠPRI": 780,
      "Ġfaith": 781,
      "ĠGood": 782,
      "Ġhate": 783,
      "akes": 784,
      "ĠPRINCE": 785,
      "AS": 786,
      "EG": 787,
      "HAS": 788,
      "OR": 789,
      "REG": 790,
      "dd": 791,
      "ek": 792,
      "hing": 793,
      "ied": 794,
      "mp": 795,
      "night": 796,
      "Ġmove": 797,
      "Ġmother": 798,
      "Ġwh": 799,
      "Ġwar": 800,
      "int": 801,
      "rel": 802,
      "Ġbid": 803,
      "Ġfriar": 804,
      "Ġcell": 805,
      "ars": 806,
      "Ġhel": 807,
      "Ġown": 808,
      "Ġbet": 809,
      "Ġint": 810,
      "ETER": 811,
      "ĠBALT": 812,
      "oom": 813,
      "illain": 814,
      "Ġlies": 815,
      "Ġlips": 816,
      "Ġweep": 817,
      "ĠPETER": 818,
      "ass": 819,
      "Ġkill": 820,
      "ĠThy": 821,
      "ĠGREG": 822,
      "Ġsun": 823,
      "Ġnever": 824,
      "Ġslain": 825,
      "Ġtwo": 826,
      "ĠMusici": 827,
      "HASAR": 828,
      "ORY": 829,
      "ĠBALTHASAR": 830,
      "ĠGREGORY": 831,
      ",'": 832,
      "cc": 833,
      "ier": 834,
      "ient": 835,
      "morrow": 836,
      "tu": 837,
      "Ġill": 838,
      "Ġtr": 839,
      "Ġsoul": 840,
      "Ġwife": 841,
      "Ġdaughter": 842,
      "Ġthose": 843,
      "ses": 844,
      "Ġput": 845,
      "eter": 846,
      "ĠRe": 847,
      "urd": 848,
      "urt": 849,
      "Ġend": 850,
      "Ġkins": 851,
      "Ġrest": 852,
      "Ġvillain": 853,
      "ĠDo": 854,
      "Ġearly": 855,
      "Ġrun": 856,
      "ign": 857,
      ".'": 858,
      "band": 859,
      "fort": 860,
      "rant": 861,
      "un": 862,
      "ust": 863,
      "ward": 864,
      "Ġtill": 865,
      "Ġtalk": 866,
      "Ġsm": 867,
      "Ġwhy": 868,
      "red": 869,
      "ree": 870,
      "iss": 871,
      "Ġco": 872,
      "Ġpeace": 873,
      "ĠAh": 874,
      "ĠAl": 875,
      "Ġoff": 876,
      "Ġere": 877,
      "Ġstr": 878,
      "ĠNot": 879,
      "Ġuse": 880,
      "Ġunt": 881,
      "vers": 882,
      "ords": 883,
      "aster": 884,
      "ause": 885,
      "Ġpoor": 886,
      "Ġalone": 887,
      "Ġgentleman": 888,
      "Ġbreath": 889,
      "Ġchurch": 890,
      "ĠShall": 891,
      "Ġhelp": 892,
      "Tis": 893,
      "av": 894,
      "ms": 895,
      "pt": 896,
      "ua": 897,
      "Ġra": 898,
      "Ġad": 899,
      "Ġsame": 900,
      "Ġsaid": 901,
      "Ġmorn": 902,
      "llow": 903,
      "Ġnone": 904,
      "Ġcould": 905,
      "ona": 906,
      "arry": 907,
      "Ġhus": 908,
      "Ġgrief": 909,
      "Ġbest": 910,
      "ade": 911,
      "Ġhapp": 912,
      "ĠMant": 913,
      "ĠSome": 914,
      "Ġnothing": 915,
      "Ġever": 916,
      "ool": 917,
      "ĠNay": 918,
      "ains": 919,
      "Ġsoon": 920,
      "asure": 921,
      "ĠThurs": 922,
      "Ġquar": 923,
      "Ġhaste": 924,
      "Ġhands": 925,
      "Ġlives": 926,
      "Ġwoe": 927,
      "Ġnews": 928,
      "Ġleave": 929,
      "ĠMusician": 930,
      "Ġhusband": 931,
      "ĠMantua": 932,
      "ĠThursday": 933,
      "ail": 934,
      "eel": 935,
      "for": 936,
      "iv": 937,
      "lse": 938,
      "Ġ[": 939,
      "Ġtor": 940,
      "hes": 941,
      "Ġsin": 942,
      "Ġsleep": 943,
      "ought": 944,
      "Ġmost": 945,
      "Ġmaster": 946,
      "Ġwall": 947,
      "Ġwind": 948,
      "Ġwatch": 949,
      "ret": 950,
      "Ġbod": 951,
      "erona": 952,
      "Ġthine": 953,
      "Ġcourt": 954,
      "Ġmyself": 955,
      "Ġstill": 956,
      "ĠLa": 957,
      "ult": 958,
      "ĠThey": 959,
      "imp": 960,
      "Ġshame": 961,
      "Ġanother": 962,
      "ĠGive": 963,
      "hile": 964,
      "Ġsend": 965,
      "ament": 966,
      "Ġconf": 967,
      "ĠWhen": 968,
      "Ġcomp": 969,
      "Ġabove": 970,
      "ĠBeing": 971,
      "ĠVerona": 972,
      "ĠSecond": 973,
      "be": 974,
      "ike": 975,
      "lt": 976,
      "ness": 977,
      "oke": 978,
      "up": 979,
      "umb": 980,
      "Ġtre": 981,
      "Ġton": 982,
      "Ġturn": 983,
      "Ġser": 984,
      "Ġset": 985,
      "Ġmer": 986,
      "Ġway": 987,
      "nder": 988,
      "Ġlate": 989,
      "Ġlaw": 990,
      "Ġlitt": 991,
      "ĠII": 992,
      "Ġdraw": 993,
      "Ġnor": 994,
      "Ġchan": 995,
      "onour": 996,
      "Ġtomb": 997,
      "sent": 998,
      "Ġheav": 999,
      "Ġhither": 1000,
      "Ġper": 1001,
      "Ġpass": 1002,
      "Ġye": 1003,
      "Ġyears": 1004,
      "Ġbear": 1005,
      "Ġbeing": 1006,
      "ats": 1007,
      "adam": 1008,
      "ĠMadam": 1009,
      "oose": 1010,
      "Ġwithin": 1011,
      "Ġforg": 1012,
      "Ġforth": 1013,
      "ĠFare": 1014,
      "ĠLet": 1015,
      "ĠHer": 1016,
      "ĠPeter": 1017,
      "Ġdost": 1018,
      "Ġmany": 1019,
      "urence": 1020,
      "Ġtherefore": 1021,
      "Ġmarry": 1022,
      "ĠYour": 1023,
      "ardon": 1024,
      "fect": 1025,
      "Ġpoison": 1026,
      "Ġdisc": 1027,
      "Ġcomfort": 1028,
      "Ġplace": 1029,
      "ĠUn": 1030,
      "Ġcheek": 1031,
      "Ġbeauty": 1032,
      "Ġkinsman": 1033,
      "Ġhappy": 1034,
      "ĠLaurence": 1035,
      "Ġlittle": 1036,
      "ĠFarewell": 1037,
      "ling": 1038,
      "rd": 1039,
      "xt": 1040,
      "Ġapp": 1041,
      "Ġmon": 1042,
      "Ġmakes": 1043,
      "Ġmurd": 1044,
      "Ġbur": 1045,
      "ised": 1046,
      "Ġfool": 1047,
      "Ġlay": 1048,
      "Ġdare": 1049,
      "Ġcame": 1050,
      "ĠThan": 1051,
      "sed": 1052,
      "Ġhu": 1053,
      "Ġpri": 1054,
      "Ġgr": 1055,
      "atter": 1056,
      "ĠWill": 1057,
      "ĠWatch": 1058,
      "Ġmean": 1059,
      "Ġthought": 1060,
      "Ġevery": 1061,
      "Ġwithout": 1062,
      "ĠOne": 1063,
      "ĠFriar": 1064,
      "ĠHath": 1065,
      "enter": 1066,
      "Ġreme": 1067,
      "Ġpro": 1068,
      "Ġmus": 1069,
      "aking": 1070,
      "Ġjo": 1071,
      "Ġthank": 1072,
      "Ġmadam": 1073,
      "Ġabout": 1074,
      "Ġplay": 1075,
      "Ġbring": 1076,
      "Ġmistre": 1077,
      "Ġwhose": 1078,
      "Ġclose": 1079,
      "Ġmarriage": 1080,
      "Ġchamber": 1081,
      "ĠTherefore": 1082,
      "Ġwarrant": 1083,
      "Ġbetter": 1084,
      "Ġmorning": 1085,
      "Ġquarrel": 1086,
      "Ġbody": 1087,
      "Ġtongue": 1088,
      "'t": 1089,
      "ab": 1090,
      "cu": 1091,
      "come": 1092,
      "cause": 1093,
      "een": 1094,
      "ff": 1095,
      "ial": 1096,
      "ning": 1097,
      "pare": 1098,
      "ub": 1099,
      "Ġve": 1100,
      "Ġair": 1101,
      "Ġsad": 1102,
      "Ġsil": 1103,
      "Ġsorrow": 1104,
      "Ġsaw": 1105,
      "Ġmin": 1106,
      "Ġmind": 1107,
      "Ġwed": 1108,
      "Ġbound": 1109,
      "Ġboy": 1110,
      "ist": 1111,
      "Ġdone": 1112,
      "Ġthr": 1113,
      "Ġnat": 1114,
      "ones": 1115,
      "Ġhone": 1116,
      "Ġhigh": 1117,
      "Ġhonour": 1118,
      "Ġple": 1119,
      "Ġpur": 1120,
      "Ġpale": 1121,
      "Ġpardon": 1122,
      "Ġget": 1123,
      "ĠRos": 1124,
      "Ġmeet": 1125,
      "ĠMarry": 1126,
      "Ġeven": 1127,
      "Ġelse": 1128,
      "Ġfortu": 1129,
      "Ġstra": 1130,
      "Ġdel": 1131,
      "aline": 1132,
      "ĠHave": 1133,
      "ĠHold": 1134,
      "Ġfare": 1135,
      "Ġshalt": 1136,
      "ask": 1137,
      "enty": 1138,
      "Ġkind": 1139,
      "Ġkiss": 1140,
      "Ġhimself": 1141,
      "Ġva": 1142,
      "hold": 1143,
      "Ġswear": 1144,
      "Ġarm": 1145,
      "Ġsays": 1146,
      "Ġblack": 1147,
      "Ġcont": 1148,
      "Ġears": 1149,
      "Ġtwenty": 1150,
      "Ġcoun": 1151,
      "Ġcalls": 1152,
      "Ġflower": 1153,
      "perate": 1154,
      "Ġstreet": 1155,
      "Ġbanish": 1156,
      "Ġbanished": 1157,
      "Ġgreat": 1158,
      "Ġdesperate": 1159,
      "Ġrich": 1160,
      "swer": 1161,
      "Ġheavy": 1162,
      "ĠRosaline": 1163,
      "Ġstraight": 1164,
      ":--": 1165,
      "az": 1166,
      "ban": 1167,
      "bed": 1168,
      "cary": 1169,
      "cient": 1170,
      "gs": 1171,
      "ged": 1172,
      "iz": 1173,
      "lf": 1174,
      "pot": 1175,
      "pen": 1176,
      "ud": 1177,
      "Ġtri": 1178,
      "hecary": 1179,
      "Ġsight": 1180,
      "ounty": 1181,
      "Ġwom": 1182,
      "Ġwast": 1183,
      "Ġwise": 1184,
      "ress": 1185,
      "Ġfight": 1186,
      "Ġfell": 1187,
      "Ġfie": 1188,
      "Ġfire": 1189,
      "Ġfirst": 1190,
      "Ġlear": 1191,
      "Ġlast": 1192,
      "Ġdu": 1193,
      "ory": 1194,
      "Ġcase": 1195,
      "Ġhide": 1196,
      "Ġyond": 1197,
      "ĠAt": 1198,
      "Ġgl": 1199,
      "Ġgra": 1200,
      "Ġyouth": 1201,
      "eth": 1202,
      "ation": 1203,
      "ĠSp": 1204,
      "Ġthough": 1205,
      "ĠOn": 1206,
      "Ġstir": 1207,
      "ĠFr": 1208,
      "ĠNor": 1209,
      "Ġdev": 1210,
      "Ġask": 1211,
      "ason": 1212,
      "Ġanswer": 1213,
      "hip": 1214,
      "Ġres": 1215,
      "Ġshow": 1216,
      "Ġnoble": 1217,
      "Ġonce": 1218,
      "Ġonly": 1219,
      "Ġgold": 1220,
      "ĠDe": 1221,
      "ĠDoth": 1222,
      "rows": 1223,
      "Ġro": 1224,
      "Ġdays": 1225,
      "Ġdisp": 1226,
      "Ġdist": 1227,
      "Ġagainst": 1228,
      "Ġcounty": 1229,
      "Ġcloud": 1230,
      "Ġflow": 1231,
      "Ġfoot": 1232,
      "Ġfollow": 1233,
      "Ġothers": 1234,
      "Ġwrit": 1235,
      "Ġbride": 1236,
      "Ġinto": 1237,
      "Ġtorch": 1238,
      "Ġserve": 1239,
      "Ġforget": 1240,
      "Ġground": 1241,
      "Ġmistress": 1242,
      "Ġfortune": 1243,
      "Ġfarewell": 1244,
      "Ġvault": 1245,
      "pothecary": 1246,
      "ac": 1247,
      "ach": 1248,
      "cha": 1249,
      "ech": 1250,
      "eed": 1251,
      "eal": 1252,
      "ild": 1253,
      "ned": 1254,
      "oon": 1255,
      "oice": 1256,
      "sh": 1257,
      "tend": 1258,
      "vol": 1259,
      "yard": 1260,
      "Ġsit": 1261,
      "Ġsing": 1262,
      "Ġsea": 1263,
      "Ġmerc": 1264,
      "Ġwant": 1265,
      "iness": 1266,
      "reat": 1267,
      "Ġbir": 1268,
      "Ġbook": 1269,
      "Ġbite": 1270,
      "Ġbos": 1271,
      "Ġbones": 1272,
      "Ġfea": 1273,
      "Ġfull": 1274,
      "Ġfeel": 1275,
      "Ġlament": 1276,
      "Ġden": 1277,
      "Ġdru": 1278,
      "Ġdark": 1279,
      "Ġdoom": 1280,
      "vent": 1281,
      "ĠTake": 1282,
      "any": 1283,
      "Ġpen": 1284,
      "Ġpast": 1285,
      "Ġopp": 1286,
      "ĠAll": 1287,
      "Ġgu": 1288,
      "Ġbese": 1289,
      "etch": 1290,
      "Ġmeans": 1291,
      "ĠSh": 1292,
      "ĠCounty": 1293,
      "Ġunder": 1294,
      "Ġancient": 1295,
      "Ġrep": 1296,
      "Ġshort": 1297,
      "Ġsword": 1298,
      "gues": 1299,
      "Ġtimes": 1300,
      "Ġenem": 1301,
      "Ġwoes": 1302,
      "Ġwoful": 1303,
      "ĠUp": 1304,
      "Ġhours": 1305,
      "Ġstran": 1306,
      "Ġchurchyard": 1307,
      "Ġconfess": 1308,
      "Ġmerry": 1309,
      "fection": 1310,
      "Ġmurder": 1311,
      "ĠWatchman": 1312,
      "Ġsilver": 1313,
      "Ġcounsel": 1314,
      "banished": 1315,
      "ĠDeath": 1316,
      "Ġclouds": 1317,
      "Ġbosom": 1318,
      "Ġfeast": 1319,
      "ber": 1320,
      "cle": 1321,
      "dy": 1322,
      "fied": 1323,
      "jure": 1324,
      "ls": 1325,
      "lic": 1326,
      "nk": 1327,
      "sand": 1328,
      "tw": 1329,
      "uck": 1330,
      "vance": 1331,
      "ĠK": 1332,
      "Ġtend": 1333,
      "Ġacc": 1334,
      "Ġsince": 1335,
      "Ġsick": 1336,
      "Ġsaint": 1337,
      "Ġmight": 1338,
      "Ġwret": 1339,
      "rer": 1340,
      "Ġbit": 1341,
      "Ġburn": 1342,
      "Ġfing": 1343,
      "Ġfound": 1344,
      "Ġfles": 1345,
      "Ġless": 1346,
      "itiz": 1347,
      "Ġdri": 1348,
      "Ġdag": 1349,
      "orse": 1350,
      "Ġnear": 1351,
      "Ġcare": 1352,
      "Ġcold": 1353,
      "Ġcorse": 1354,
      "ĠToo": 1355,
      "ĠTill": 1356,
      "otion": 1357,
      "Ġhit": 1358,
      "Ġhot": 1359,
      "Ġhome": 1360,
      "Ġpat": 1361,
      "Ġpal": 1362,
      "Ġpil": 1363,
      "Ġover": 1364,
      "ĠAr": 1365,
      "Ġgir": 1366,
      "Ġbel": 1367,
      "Ġbecause": 1368,
      "Ġbehold": 1369,
      "ench": 1370,
      "atis": 1371,
      "ĠRet": 1372,
      "Ġinde": 1373,
      "Ġmeasure": 1374,
      "Ġthousand": 1375,
      "ĠBen": 1376,
      "Ġstri": 1377,
      "Ġstars": 1378,
      "ĠLord": 1379,
      "ĠHis": 1380,
      "Ġsole": 1381,
      "Ġthyself": 1382,
      "ents": 1383,
      "Ġrem": 1384,
      "Ġshows": 1385,
      "Ġsub": 1386,
      "Ġsupp": 1387,
      "Ġsudd": 1388,
      "Ġnext": 1389,
      "Ġprove": 1390,
      "Ġvile": 1391,
      "ĠDraw": 1392,
      "Ġcanst": 1393,
      "rown": 1394,
      "Ġran": 1395,
      "ortal": 1396,
      "Ġmark": 1397,
      "Ġcons": 1398,
      "Ġjest": 1399,
      "ĠYet": 1400,
      "Ġorcha": 1401,
      "Ġquick": 1402,
      "Ġloving": 1403,
      "Ġlovers": 1404,
      "Ġpret": 1405,
      "Ġlooks": 1406,
      "Ġgentlemen": 1407,
      "Ġwords": 1408,
      "Ġenough": 1409,
      "Ġbrother": 1410,
      "Ġexile": 1411,
      "Ġexcu": 1412,
      "emper": 1413,
      "pect": 1414,
      "Ġbloody": 1415,
      "Ġaff": 1416,
      "Ġafter": 1417,
      "Ġfearful": 1418,
      "ĠStay": 1419,
      "Ġmoved": 1420,
      "ĠAlack": 1421,
      "Ġremember": 1422,
      "Ġjoint": 1423,
      "Ġwedd": 1424,
      "Ġthrough": 1425,
      "Ġhonest": 1426,
      "Ġbeseech": 1427,
      "Ġtender": 1428,
      "Ġflesh": 1429,
      "itizen": 1430,
      "Ġdagger": 1431,
      "Ġindeed": 1432,
      "Ġsudden": 1433,
      "Ġorchard": 1434,
      "'?": 1435,
      "AH": 1436,
      "As": 1437,
      "Ay": 1438,
      "BR": 1439,
      "af": 1440,
      "bs": 1441,
      "bt": 1442,
      "cher": 1443,
      "eous": 1444,
      "gr": 1445,
      "ging": 1446,
      "ior": 1447,
      "ience": 1448,
      "nes": 1449,
      "ument": 1450,
      "ump": 1451,
      "vious": 1452,
      "way": 1453,
      "Ġent": 1454,
      "Ġimp": 1455,
      "Ġtale": 1456,
      "Ġage": 1457,
      "Ġact": 1458,
      "Ġsk": 1459,
      "Ġsle": 1460,
      "Ġsigh": 1461,
      "Ġsatis": 1462,
      "Ġmatch": 1463,
      "Ġmatter": 1464,
      "Ġwoo": 1465,
      "Ġwound": 1466,
      "Ġwish": 1467,
      "Ġwhile": 1468,
      "hal": 1469,
      "ren": 1470,
      "Ġbow": 1471,
      "ister": 1472,
      "Ġfar": 1473,
      "Ġfourt": 1474,
      "Ġfurt": 1475,
      "Ġfetch": 1476,
      "Ġlad": 1477,
      "Ġlam": 1478,
      "Ġlark": 1479,
      "Ġdou": 1480,
      "Ġdance": 1481,
      "Ġthree": 1482,
      "Ġthumb": 1483,
      "Ġnay": 1484,
      "Ġcut": 1485,
      "Ġcri": 1486,
      "Ġcho": 1487,
      "Ġcry": 1488,
      "Ġcords": 1489,
      "ons": 1490,
      "aring": 1491,
      "mend": 1492,
      "ĠTurn": 1493,
      "Ġhurt": 1494,
      "Ġpower": 1495,
      "stant": 1496,
      "ĠABR": 1497,
      "Ġgall": 1498,
      "Ġgro": 1499,
      "Ġgoose": 1500,
      "Ġoft": 1501,
      "att": 1502,
      "ĠWas": 1503,
      "ute": 1504,
      "Ġhang": 1505,
      "Ġhaving": 1506,
      "ĠMore": 1507,
      "ĠSu": 1508,
      "ĠSw": 1509,
      "ĠSir": 1510,
      "ĠSaint": 1511,
      "ĠCh": 1512,
      "ĠCan": 1513,
      "oof": 1514,
      "ĠOur": 1515,
      "Ġdep": 1516,
      "Ġdeep": 1517,
      "Ġitself": 1518,
      "ĠLook": 1519,
      "ĠLike": 1520,
      "ĠHence": 1521,
      "ĠPr": 1522,
      "ĠThese": 1523,
      "rah": 1524,
      "Ġret": 1525,
      "Ġreason": 1526,
      "Ġshri": 1527,
      "Ġsum": 1528,
      "Ġdog": 1529,
      "Ġnoise": 1530,
      "Ġseen": 1531,
      "Ġval": 1532,
      "Ġvoice": 1533,
      "Ġspoke": 1534,
      "Ġattend": 1535,
      "Ġkne": 1536,
      "ĠDid": 1537,
      "ush": 1538,
      "Ġrose": 1539,
      "Ġhoar": 1540,
      "Ġhold": 1541,
      "Ġconsent": 1542,
      "Ġpoint": 1543,
      "ngth": 1544,
      "inks": 1545,
      "Ġdidst": 1546,
      "Ġpresent": 1547,
      "Ġenvious": 1548,
      "Ġbreast": 1549,
      "Ġbreak": 1550,
      "ĠCapulets": 1551,
      "Ġcount": 1552,
      "Ġspeaks": 1553,
      "Ġawhile": 1554,
      "Ġfoe": 1555,
      "Ġstrength": 1556,
      "Ġmaids": 1557,
      "Ġmaiden": 1558,
      "Ġfriends": 1559,
      "Ġbright": 1560,
      "Ġwhom": 1561,
      "Ġunto": 1562,
      "Ġcompany": 1563,
      "ĠIII": 1564,
      "Ġcheeks": 1565,
      "Ġmonument": 1566,
      "Ġmusic": 1567,
      "Ġnature": 1568,
      "Ġbanishment": 1569,
      "Ġlearn": 1570,
      "Ġyonder": 1571,
      "ĠFrom": 1572,
      "Ġflowers": 1573,
      "volio": 1574,
      "Ġenemy": 1575,
      "Ġbitter": 1576,
      "Ġgirl": 1577,
      "ĠBenvolio": 1578,
      "AHAM": 1579,
      "Aside": 1580,
      "Ġslew": 1581,
      "Ġfourteen": 1582,
      "ĠABRAHAM": 1583,
      "!'": 1584,
      "!--": 1585,
      ";'": 1586,
      "?'": 1587,
      "CT": 1588,
      "HN": 1589,
      "OHN": 1590,
      "With": 1591,
      "air": 1592,
      "cl": 1593,
      "con": 1594,
      "chan": 1595,
      "ched": 1596,
      "cious": 1597,
      "dom": 1598,
      "gri": 1599,
      "hood": 1600,
      "ken": 1601,
      "mn": 1602,
      "mit": 1603,
      "ming": 1604,
      "ner": 1605,
      "ners": 1606,
      "ring": 1607,
      "sse": 1608,
      "time": 1609,
      "wo": 1610,
      "Ġim": 1611,
      "Ġter": 1612,
      "Ġtear": 1613,
      "Ġtort": 1614,
      "hen": 1615,
      "head": 1616,
      "Ġsen": 1617,
      "Ġsent": 1618,
      "Ġside": 1619,
      "Ġsimp": 1620,
      "Ġmet": 1621,
      "Ġmod": 1622,
      "Ġmorrow": 1623,
      "Ġmask": 1624,
      "Ġmoon": 1625,
      "Ġwa": 1626,
      "Ġwake": 1627,
      "Ġwings": 1628,
      "Ġwalk": 1629,
      "Ġwild": 1630,
      "ready": 1631,
      "Ġbus": 1632,
      "Ġbraw": 1633,
      "Ġbrief": 1634,
      "Ġbles": 1635,
      "Ġbade": 1636,
      "lling": 1637,
      "Ġfe": 1638,
      "Ġfore": 1639,
      "Ġfive": 1640,
      "Ġfine": 1641,
      "ert": 1642,
      "ering": 1643,
      "Ġlent": 1644,
      "Ġlaid": 1645,
      "ĠIV": 1646,
      "ition": 1647,
      "Ġdan": 1648,
      "Ġdam": 1649,
      "Ġdiv": 1650,
      "Ġthus": 1651,
      "Ġthings": 1652,
      "Ġnine": 1653,
      "Ġcour": 1654,
      "Ġcru": 1655,
      "Ġcrow": 1656,
      "Ġcond": 1657,
      "Ġcause": 1658,
      "arri": 1659,
      "ved": 1660,
      "ĠTwo": 1661,
      "Ġtoward": 1662,
      "Ġhell": 1663,
      "Ġheir": 1664,
      "anish": 1665,
      "stance": 1666,
      "ĠApothecary": 1667,
      "ĠACT": 1668,
      "Ġgi": 1669,
      "Ġgho": 1670,
      "Ġgave": 1671,
      "Ġbeat": 1672,
      "athed": 1673,
      "ury": 1674,
      "uth": 1675,
      "Ġhare": 1676,
      "Ġhair": 1677,
      "ĠMay": 1678,
      "irit": 1679,
      "iron": 1680,
      "irtu": 1681,
      "Ġeither": 1682,
      "Ġease": 1683,
      "Ġemp": 1684,
      "ĠBl": 1685,
      "ĠCould": 1686,
      "ĠCall": 1687,
      "ĠCup": 1688,
      "ĠCitizen": 1689,
      "ĠOut": 1690,
      "eds": 1691,
      "Ġform": 1692,
      "Ġforsw": 1693,
      "Ġstate": 1694,
      "Ġliving": 1695,
      "Ġdef": 1696,
      "Ġdew": 1697,
      "ĠJOHN": 1698,
      "alth": 1699,
      "ĠHel": 1700,
      "ĠPo": 1701,
      "ĠPage": 1702,
      "ĠEre": 1703,
      "Ġsoft": 1704,
      "Ġherself": 1705,
      "Ġasleep": 1706,
      "Ġshape": 1707,
      "Ġanger": 1708,
      "rust": 1709,
      "ift": 1710,
      "iful": 1711,
      "Ġread": 1712,
      "Ġshut": 1713,
      "Ġyourself": 1714,
      "ants": 1715,
      "Ġsecond": 1716,
      "Ġfray": 1717,
      "Ġprom": 1718,
      "Ġproud": 1719,
      "Ġvis": 1720,
      "Ġvow": 1721,
      "Ġspirit": 1722,
      "Ġswords": 1723,
      "Ġknave": 1724,
      "Ġknock": 1725,
      "iece": 1726,
      "Ġring": 1727,
      "Ġrough": 1728,
      "Ġhope": 1729,
      "imely": 1730,
      "Ġtook": 1731,
      "Ġconjure": 1732,
      "aken": 1733,
      "feit": 1734,
      "Ġseek": 1735,
      "Ġwors": 1736,
      "Ġquoth": 1737,
      "Ġalready": 1738,
      "Ġslow": 1739,
      "Ġslay": 1740,
      "Ġslaughter": 1741,
      "Ġgives": 1742,
      "ires": 1743,
      "Ġprepare": 1744,
      "Ġtrust": 1745,
      "Ġhouses": 1746,
      "iteous": 1747,
      "Ġwherefore": 1748,
      "Ġexce": 1749,
      "Ġrude": 1750,
      "ickle": 1751,
      "ĠMontagues": 1752,
      "ross": 1753,
      "Ġscorn": 1754,
      "Ġchide": 1755,
      "icians": 1756,
      "Ġchar": 1757,
      "ĠAnon": 1758,
      "Ġwritt": 1759,
      "Ġwits": 1760,
      "Ġwithal": 1761,
      "Ġlonger": 1762,
      "Ġhadst": 1763,
      "ĠSee": 1764,
      "Ġjoyful": 1765,
      "Ġheads": 1766,
      "Ġletters": 1767,
      "Ġdreams": 1768,
      "Ġlead": 1769,
      "Ġbegg": 1770,
      "Ġbegin": 1771,
      "Ġtruth": 1772,
      "ustom": 1773,
      "Ġsmile": 1774,
      "ĠAlas": 1775,
      "Ġuntimely": 1776,
      "Ġwindow": 1777,
      "Ġchange": 1778,
      "Ġhum": 1779,
      "Ġmusicians": 1780,
      "Ġhonourable": 1781,
      "Ġpleasure": 1782,
      "Ġdelight": 1783,
      "Ġfellow": 1784,
      "Ġgrace": 1785,
      "ĠSpeak": 1786,
      "Ġlamentable": 1787,
      "venture": 1788,
      "Ġguest": 1789,
      "ĠUpon": 1790,
      "Ġstrange": 1791,
      "Ġfingers": 1792,
      "Ġpilgri": 1793,
      "Ġremove": 1794,
      "Ġquickly": 1795,
      "Ġpretty": 1796,
      "Ġexcuse": 1797,
      "Ġwedding": 1798,
      "Ġsighs": 1799,
      "Ġsatisfied": 1800,
      "Ġfurther": 1801,
      "Ġladies": 1802,
      "ĠSweet": 1803,
      "Ġreturn": 1804,
      "Ġshrift": 1805,
      "Within": 1806,
      "Ġblessed": 1807,
      "Ġghost": 1808,
      "ĠCupid": 1809,
      "Ġwritten": 1810,
      "GE": 1811,
      "God": 1812,
      "aith": 1813,
      "co": 1814,
      "ches": 1815,
      "cret": 1816,
      "der": 1817,
      "den": 1818,
      "dge": 1819,
      "gment": 1820,
      "gled": 1821,
      "hn": 1822,
      "ip": 1823,
      "ix": 1824,
      "light": 1825,
      "lcome": 1826,
      "most": 1827,
      "nock": 1828,
      "nament": 1829,
      "oes": 1830,
      "ohn": 1831,
      "pl": 1832,
      "pier": 1833,
      "roud": 1834,
      "sp": 1835,
      "some": 1836,
      "ting": 1837,
      "ume": 1838,
      "ught": 1839,
      "uff": 1840,
      "wom": 1841,
      "Ġur": 1842,
      "Ġenter": 1843,
      "Ġiron": 1844,
      "Ġty": 1845,
      "Ġtou": 1846,
      "Ġtea": 1847,
      "Ġtast": 1848,
      "here": 1849,
      "Ġay": 1850,
      "Ġsme": 1851,
      "Ġsour": 1852,
      "Ġsell": 1853,
      "Ġsear": 1854,
      "Ġsake": 1855,
      "Ġsail": 1856,
      "ount": 1857,
      "Ġmur": 1858,
      "Ġmouse": 1859,
      "Ġmortal": 1860,
      "Ġwis": 1861,
      "Ġwond": 1862,
      "Ġwench": 1863,
      "ined": 1864,
      "rew": 1865,
      "read": 1866,
      "Ġble": 1867,
      "Ġbad": 1868,
      "Ġbrow": 1869,
      "Ġbare": 1870,
      "Ġborn": 1871,
      "Ġbaw": 1872,
      "Ġbig": 1873,
      "Ġbold": 1874,
      "Ġbless": 1875,
      "Ġbud": 1876,
      "isses": 1877,
      "llen": 1878,
      "Ġfat": 1879,
      "Ġfal": 1880,
      "Ġfain": 1881,
      "Ġfaint": 1882,
      "Ġfoul": 1883,
      "Ġfier": 1884,
      "Ġfought": 1885,
      "ern": 1886,
      "Ġlod": 1887,
      "Ġlau": 1888,
      "Ġlend": 1889,
      "Ġdr": 1890,
      "Ġdove": 1891,
      "Ġdra": 1892,
      "Ġdry": 1893,
      "Ġdate": 1894,
      "Ġdies": 1895,
      "Ġdwell": 1896,
      "ors": 1897,
      "Ġthither": 1898,
      "Ġthrust": 1899,
      "Ġcir": 1900,
      "Ġcal": 1901,
      "Ġcurse": 1902,
      "Ġcure": 1903,
      "Ġcrave": 1904,
      "Ġcity": 1905,
      "Ġcurt": 1906,
      "Ġciv": 1907,
      "Ġcarri": 1908,
      "ves": 1909,
      "med": 1910,
      "ĠTut": 1911,
      "ĠTell": 1912,
      "Ġtown": 1913,
      "seem": 1914,
      "Ġhie": 1915,
      "Ġpar": 1916,
      "Ġpay": 1917,
      "Ġpain": 1918,
      "Ġpers": 1919,
      "Ġpiteous": 1920,
      "Ġodd": 1921,
      "Ġocc": 1922,
      "Ġopen": 1923,
      "ĠAd": 1924,
      "ĠAm": 1925,
      "ĠAway": 1926,
      "Ġbeast": 1927,
      "omen": 1928,
      "Ġinter": 1929,
      "ĠWould": 1930,
      "ĠWel": 1931,
      "ĠWilt": 1932,
      "Ġmeant": 1933,
      "ceive": 1934,
      "Ġhar": 1935,
      "Ġhard": 1936,
      "Ġhalf": 1937,
      "ĠSus": 1938,
      "ĠSince": 1939,
      "ird": 1940,
      "Ġnote": 1941,
      "Ġeast": 1942,
      "ĠCame": 1943,
      "ills": 1944,
      "eding": 1945,
      "right": 1946,
      "Ġforb": 1947,
      "Ġstar": 1948,
      "Ġstain": 1949,
      "Ġsteel": 1950,
      "Ġstumb": 1951,
      "Ġsteal": 1952,
      "ĠFaith": 1953,
      "ĠNe": 1954,
      "ĠJohn": 1955,
      "ĠLady": 1956,
      "Ġwear": 1957,
      "Ġweap": 1958,
      "Ġweak": 1959,
      "Ġwelcome": 1960,
      "ĠHa": 1961,
      "ĠHad": 1962,
      "ĠHie": 1963,
      "ĠPeace": 1964,
      "ĠEither": 1965,
      "Ġsold": 1966,
      "Ġhers": 1967,
      "uly": 1968,
      "Ġass": 1969,
      "Ġfast": 1970,
      "Ġfault": 1971,
      "race": 1972,
      "ĠThus": 1973,
      "ĠGentle": 1974,
      "eart": 1975,
      "Ġready": 1976,
      "Ġsure": 1977,
      "Ġyours": 1978,
      "Ġsecret": 1979,
      "Ġfrown": 1980,
      "Ġvain": 1981,
      "Ġvio": 1982,
      "Ġvirtu": 1983,
      "Ġspite": 1984,
      "Ġspeed": 1985,
      "Ġgoss": 1986,
      "Ġknife": 1987,
      "ieu": 1988,
      "ieve": 1989,
      "Ġamong": 1990,
      "thing": 1991,
      "Ġroom": 1992,
      "ounds": 1993,
      "Ġblind": 1994,
      "ately": 1995,
      "Ġornament": 1996,
      "Ġsomething": 1997,
      "Ġwash": 1998,
      "Ġknown": 1999,
      "Ġpost": 2000,
      "osed": 2001,
      "Ġwork": 2002,
      "Ġworm": 2003,
      "Ġworn": 2004,
      "Ġquiet": 2005,
      "Ġalack": 2006,
      "Ġalong": 2007,
      "Ġunl": 2008,
      "Ġuncle": 2009,
      "Ġlover": 2010,
      "Ġloss": 2011,
      "Ġcoming": 2012,
      "Ġcommend": 2013,
      "Ġpres": 2014,
      "Ġprecious": 2015,
      "Ġabro": 2016,
      "Ġpla": 2017,
      "Ġgentlewom": 2018,
      "Ġlightning": 2019,
      "ĠPAGE": 2020,
      "Ġenc": 2021,
      "Ġbro": 2022,
      "Ġhearts": 2023,
      "Ġmiser": 2024,
      "Ġextre": 2025,
      "Ġcounter": 2026,
      "ĠServing": 2027,
      "Ġheavens": 2028,
      "osition": 2029,
      "Ġnames": 2030,
      "ĠWithin": 2031,
      "ments": 2032,
      "ĠYoung": 2033,
      "Ġscar": 2034,
      "Ġstrew": 2035,
      "Ġwrong": 2036,
      "ĠWhose": 2037,
      "Ġaffection": 2038,
      "venge": 2039,
      "Ġgrey": 2040,
      "Ġgreen": 2041,
      "Ġdesp": 2042,
      "Ġkeeps": 2043,
      "Ġright": 2044,
      "ĠStand": 2045,
      "Ġfalls": 2046,
      "Ġneeds": 2047,
      "Ġleft": 2048,
      "Ġcheer": 2049,
      "Ġhateful": 2050,
      "Ġwarm": 2051,
      "Ġbetw": 2052,
      "Ġintents": 2053,
      "Ġweeps": 2054,
      "Ġkinsmen": 2055,
      "ignior": 2056,
      "Ġsmall": 2057,
      "Ġcoz": 2058,
      "Ġcover": 2059,
      "Ġrage": 2060,
      "Ġadvance": 2061,
      "Ġchance": 2062,
      "ĠUnless": 2063,
      "Ġbury": 2064,
      "Ġburied": 2065,
      "Ġdares": 2066,
      "Ġprick": 2067,
      "Ġveins": 2068,
      "Ġsadness": 2069,
      "Ġminute": 2070,
      "Ġpurp": 2071,
      "Ġcontr": 2072,
      "Ġstreets": 2073,
      "aze": 2074,
      "Ġwomb": 2075,
      "Ġwisely": 2076,
      "ression": 2077,
      "Ġglad": 2078,
      "Ġrespect": 2079,
      "Ġgolden": 2080,
      "Ġbridegr": 2081,
      "ealous": 2082,
      "Ġmercy": 2083,
      "Ġbird": 2084,
      "Ġbirth": 2085,
      "Ġdrunk": 2086,
      "ĠKnock": 2087,
      "Ġwretched": 2088,
      "Ġpatience": 2089,
      "Ġpalm": 2090,
      "ĠArt": 2091,
      "Ġstrike": 2092,
      "Ġsolemn": 2093,
      "Ġconsort": 2094,
      "Ġlamb": 2095,
      "Ġdoubt": 2096,
      "ĠSuch": 2097,
      "Ġdepart": 2098,
      "Ġsumm": 2099,
      "Ġtorture": 2100,
      "Ġsense": 2101,
      "Ġdamned": 2102,
      "Ġcourse": 2103,
      "Ġcruel": 2104,
      "Ġcondu": 2105,
      "Ġempty": 2106,
      "Ġforsworn": 2107,
      "Ġhumour": 2108,
      "Ġghostly": 2109,
      "Ġtouch": 2110,
      "Ġmurde": 2111,
      "Ġwisdom": 2112,
      "Ġfatal": 2113,
      "Ġlaugh": 2114,
      "Ġcivil": 2115,
      "ĠWelcome": 2116,
      "Ġviol": 2117,
      "Ġgentlewoman": 2118,
      "Ġbridegroom": 2119,
      "ĠKnocking": 2120,
      ".--": 2121,
      ":'": 2122,
      "Heart": 2123,
      "Tybalt": 2124,
      "acc": 2125,
      "bl": 2126,
      "che": 2127,
      "cis": 2128,
      "cing": 2129,
      "cure": 2130,
      "dal": 2131,
      "draw": 2132,
      "ec": 2133,
      "ean": 2134,
      "ered": 2135,
      "fice": 2136,
      "gg": 2137,
      "ges": 2138,
      "gain": 2139,
      "house": 2140,
      "ily": 2141,
      "iver": 2142,
      "ivers": 2143,
      "ixt": 2144,
      "jur": 2145,
      "ker": 2146,
      "ler": 2147,
      "los": 2148,
      "like": 2149,
      "mas": 2150,
      "mine": 2151,
      "mity": 2152,
      "mary": 2153,
      "made": 2154,
      "mortal": 2155,
      "now": 2156,
      "noon": 2157,
      "oot": 2158,
      "oly": 2159,
      "ooth": 2160,
      "pan": 2161,
      "ping": 2162,
      "rp": 2163,
      "ray": 2164,
      "ratch": 2165,
      "su": 2166,
      "sha": 2167,
      "sion": 2168,
      "uy": 2169,
      "use": 2170,
      "ule": 2171,
      "une": 2172,
      "vy": 2173,
      "vour": 2174,
      "vive": 2175,
      "vish": 2176,
      "wor": 2177,
      "wear": 2178,
      "Ġi": 2179,
      "Ġut": 2180,
      "Ġid": 2181,
      "Ġord": 2182,
      "Ġvenge": 2183,
      "Ġta": 2184,
      "Ġtid": 2185,
      "Ġtail": 2186,
      "Ġtemper": 2187,
      "hend": 2188,
      "hest": 2189,
      "Ġah": 2190,
      "Ġap": 2191,
      "Ġadd": 2192,
      "Ġapt": 2193,
      "Ġapothecary": 2194,
      "Ġsave": 2195,
      "Ġsau": 2196,
      "Ġserv": 2197,
      "Ġsought": 2198,
      "ounter": 2199,
      "ounce": 2200,
      "ouble": 2201,
      "Ġmood": 2202,
      "Ġmatt": 2203,
      "Ġwat": 2204,
      "Ġwide": 2205,
      "Ġwag": 2206,
      "Ġwakes": 2207,
      "Ġwaking": 2208,
      "Ġwomen": 2209,
      "ining": 2210,
      "inner": 2211,
      "rest": 2212,
      "rehend": 2213,
      "Ġborrow": 2214,
      "Ġbark": 2215,
      "Ġburd": 2216,
      "Ġbrows": 2217,
      "Ġbuy": 2218,
      "ndred": 2219,
      "Ġfis": 2220,
      "Ġfit": 2221,
      "Ġfan": 2222,
      "Ġfly": 2223,
      "Ġfood": 2224,
      "Ġfel": 2225,
      "Ġfest": 2226,
      "Ġfond": 2227,
      "Ġfree": 2228,
      "Ġfury": 2229,
      "Ġfickle": 2230,
      "eral": 2231,
      "Ġlan": 2232,
      "Ġlain": 2233,
      "Ġlust": 2234,
      "itch": 2235,
      "ited": 2236,
      "Ġdire": 2237,
      "Ġdinner": 2238,
      "orous": 2239,
      "orses": 2240,
      "Ġnu": 2241,
      "Ġcr": 2242,
      "Ġcle": 2243,
      "Ġcea": 2244,
      "Ġcook": 2245,
      "Ġcock": 2246,
      "Ġcup": 2247,
      "Ġcross": 2248,
      "ony": 2249,
      "onounce": 2250,
      "mes": 2251,
      "Ġtoad": 2252,
      "Ġtold": 2253,
      "Ġtoil": 2254,
      "sequ": 2255,
      "Ġheel": 2256,
      "Ġhealth": 2257,
      "ote": 2258,
      "ott": 2259,
      "otest": 2260,
      "Ġhid": 2261,
      "Ġhood": 2262,
      "Ġhire": 2263,
      "ang": 2264,
      "ancis": 2265,
      "Ġpow": 2266,
      "Ġphi": 2267,
      "Ġpure": 2268,
      "Ġpack": 2269,
      "Ġpare": 2270,
      "Ġpub": 2271,
      "Ġpiece": 2272,
      "Ġyear": 2273,
      "stal": 2274,
      "strel": 2275,
      "ĠAre": 2276,
      "Ġgot": 2277,
      "Ġgru": 2278,
      "Ġgrie": 2279,
      "Ġgrown": 2280,
      "Ġgaze": 2281,
      "ingale": 2282,
      "Ġbeh": 2283,
      "Ġbegu": 2284,
      "Ġbeats": 2285,
      "oward": 2286,
      "ating": 2287,
      "Ġinf": 2288,
      "Ġinv": 2289,
      "Ġincon": 2290,
      "ĠWed": 2291,
      "ĠWife": 2292,
      "Ġmed": 2293,
      "Ġmeat": 2294,
      "urb": 2295,
      "ural": 2296,
      "uts": 2297,
      "ced": 2298,
      "cend": 2299,
      "ceit": 2300,
      "cess": 2301,
      "add": 2302,
      "ads": 2303,
      "adventure": 2304,
      "Ġhall": 2305,
      "ĠMis": 2306,
      "ĠMake": 2307,
      "ĠMost": 2308,
      "ĠMab": 2309,
      "ĠSc": 2310,
      "ĠSignior": 2311,
      "esu": 2312,
      "esy": 2313,
      "Ġef": 2314,
      "ĠCon": 2315,
      "Ġwithdraw": 2316,
      "nto": 2317,
      "nts": 2318,
      "oved": 2319,
      "Ġste": 2320,
      "Ġsto": 2321,
      "Ġstart": 2322,
      "Ġstru": 2323,
      "Ġstif": 2324,
      "Ġstop": 2325,
      "Ġstint": 2326,
      "ĠFind": 2327,
      "ĠFie": 2328,
      "Ġlick": 2329,
      "Ġliber": 2330,
      "Ġliken": 2331,
      "ĠNight": 2332,
      "Ġdeal": 2333,
      "ĠJack": 2334,
      "ĠJule": 2335,
      "ĠJesu": 2336,
      "ĠLove": 2337,
      "ĠLam": 2338,
      "ĠHast": 2339,
      "ĠHap": 2340,
      "ĠHark": 2341,
      "ĠHang": 2342,
      "ĠPut": 2343,
      "ĠEven": 2344,
      "ĠElse": 2345,
      "aining": 2346,
      "Ġloved": 2347,
      "Ġaside": 2348,
      "onest": 2349,
      "Ġfail": 2350,
      "Ġfaire": 2351,
      "vern": 2352,
      "ash": 2353,
      "asion": 2354,
      "entio": 2355,
      "Ġkisses": 2356,
      "Ġanon": 2357,
      "Ġange": 2358,
      "ĠThings": 2359,
      "ĠGre": 2360,
      "ĠGet": 2361,
      "athsome": 2362,
      "ify": 2363,
      "Ġreve": 2364,
      "Ġshroud": 2365,
      "Ġsuit": 2366,
      "Ġsuck": 2367,
      "Ġsep": 2368,
      "Ġsever": 2369,
      "Ġself": 2370,
      "Ġprison": 2371,
      "Ġproof": 2372,
      "Ġpronounce": 2373,
      "Ġprotest": 2374,
      "outh": 2375,
      "Ġvie": 2376,
      "Ġspent": 2377,
      "Ġnightingale": 2378,
      "Ġsworn": 2379,
      "Ġswift": 2380,
      "Ġgod": 2381,
      "Ġgoing": 2382,
      "Ġgoes": 2383,
      "allow": 2384,
      "iest": 2385,
      "ield": 2386,
      "ĠDost": 2387,
      "Ġamb": 2388,
      "thy": 2389,
      "ander": 2390,
      "Ġrouse": 2391,
      "Ġrather": 2392,
      "Ġsirrah": 2393,
      "Ġhol": 2394,
      "Ġhollow": 2395,
      "Ġblows": 2396,
      "Ġblush": 2397,
      "Ġdaylight": 2398,
      "Ġwouldst": 2399,
      "Ġjud": 2400,
      "Ġjealous": 2401,
      "Ġsometime": 2402,
      "Ġdeadly": 2403,
      "esty": 2404,
      "Ġknows": 2405,
      "hyme": 2406,
      "Ġmayst": 2407,
      "Ġposse": 2408,
      "Ġseeming": 2409,
      "Ġworse": 2410,
      "Ġdish": 2411,
      "Ġalas": 2412,
      "Ġaloof": 2413,
      "Ġalmost": 2414,
      "Ġslave": 2415,
      "Ġslander": 2416,
      "Ġuns": 2417,
      "Ġunha": 2418,
      "Ġunacc": 2419,
      "Ġlost": 2420,
      "Ġlogs": 2421,
      "Ġloathsome": 2422,
      "Ġcomm": 2423,
      "Ġprevent": 2424,
      "Ġpluck": 2425,
      "Ġsweetest": 2426,
      "Ġbrain": 2427,
      "Ġmisadventure": 2428,
      "Ġwhole": 2429,
      "Ġexp": 2430,
      "Ġexchan": 2431,
      "empt": 2432,
      "Ġbackward": 2433,
      "Ġclim": 2434,
      "ĠWithout": 2435,
      "ĠBecause": 2436,
      "Ġruled": 2437,
      "ĠUnto": 2438,
      "roach": 2439,
      "Ġscratch": 2440,
      "Ġchoose": 2441,
      "Ġstands": 2442,
      "ainted": 2443,
      "icious": 2444,
      "ĠWere": 2445,
      "tree": 2446,
      "Ġgreet": 2447,
      "Ġdesire": 2448,
      "Ġchildren": 2449,
      "ophy": 2450,
      "Ġprayer": 2451,
      "ursu": 2452,
      "Ġneedy": 2453,
      "Ġbridal": 2454,
      "Ġbeauties": 2455,
      "Ġfaithful": 2456,
      "Ġwhite": 2457,
      "Ġweeping": 2458,
      "ĠMusicians": 2459,
      "Ġtruly": 2460,
      "Ġtrouble": 2461,
      "Ġendure": 2462,
      "Ġcoll": 2463,
      "Ġstrong": 2464,
      "Ġraise": 2465,
      "Ġrapier": 2466,
      "Ġadieu": 2467,
      "Ġquarre": 2468,
      "ailing": 2469,
      "force": 2470,
      "Ġwalls": 2471,
      "Ġcourteous": 2472,
      "Ġcourtesy": 2473,
      "Ġcompl": 2474,
      "bey": 2475,
      "Ġtremb": 2476,
      "Ġturns": 2477,
      "Ġpassion": 2478,
      "Ġdiscords": 2479,
      "Ġapprehend": 2480,
      "Ġapproach": 2481,
      "Ġmonth": 2482,
      "Ġmurders": 2483,
      "Ġhundred": 2484,
      "Ġthoughts": 2485,
      "Ġremedy": 2486,
      "Ġprov": 2487,
      "Ġjoin": 2488,
      "Ġthanks": 2489,
      "Ġclosed": 2490,
      "Ġvex": 2491,
      "Ġairy": 2492,
      "Ġminstrel": 2493,
      "Ġhoney": 2494,
      "Ġplease": 2495,
      "Ġkindred": 2496,
      "Ġtriump": 2497,
      "Ġwoman": 2498,
      "Ġwaste": 2499,
      "Ġfellows": 2500,
      "Ġfiend": 2501,
      "Ġfield": 2502,
      "Ġdug": 2503,
      "Ġyouthful": 2504,
      "ethinks": 2505,
      "ĠFrancis": 2506,
      "Ġdevil": 2507,
      "Ġdevise": 2508,
      "Ġdisturb": 2509,
      "Ġwanton": 2510,
      "reature": 2511,
      "Ġdeny": 2512,
      "Ġoppression": 2513,
      "ĠShould": 2514,
      "Ġconfession": 2515,
      "twas": 2516,
      "Ġwretch": 2517,
      "Ġpatient": 2518,
      "Ġbelieve": 2519,
      "ĠRetires": 2520,
      "Ġsubstance": 2521,
      "Ġsupper": 2522,
      "Ġsupposed": 2523,
      "Ġafford": 2524,
      "Ġafternoon": 2525,
      "Ġjoints": 2526,
      "nesday": 2527,
      "Ġentreat": 2528,
      "Ġimport": 2529,
      "rench": 2530,
      "Ġcries": 2531,
      "Ġgroan": 2532,
      "ĠSirrah": 2533,
      "ĠChurch": 2534,
      "ĠHencefor": 2535,
      "Ġvalour": 2536,
      "Ġknew": 2537,
      "Ġknees": 2538,
      "Ġrosemary": 2539,
      "Ġpresently": 2540,
      "Ġmaidenhead": 2541,
      "Ġimmortal": 2542,
      "Ġsimple": 2543,
      "Ġmodesty": 2544,
      "Ġwax": 2545,
      "Ġbusiness": 2546,
      "Ġgiving": 2547,
      "ĠHelp": 2548,
      "ĠPoor": 2549,
      "Ġvisor": 2550,
      "Ġcharge": 2551,
      "Ġbeggar": 2552,
      "Ġguests": 2553,
      "Ġpilgrim": 2554,
      "Ġurged": 2555,
      "Ġteach": 2556,
      "Ġtaste": 2557,
      "Ġsearch": 2558,
      "Ġbawd": 2559,
      "Ġfalse": 2560,
      "Ġfiery": 2561,
      "Ġlends": 2562,
      "Ġdrink": 2563,
      "Ġcalm": 2564,
      "Ġcursed": 2565,
      "Ġcraves": 2566,
      "Ġcurtains": 2567,
      "seeming": 2568,
      "Ġoccasion": 2569,
      "ĠSusan": 2570,
      "ĠGentlemen": 2571,
      "Ġvirtuous": 2572,
      "Ġunluck": 2573,
      "Ġabroad": 2574,
      "Ġplague": 2575,
      "Ġencounter": 2576,
      "Ġbroad": 2577,
      "Ġcounterfeit": 2578,
      "ĠServingmen": 2579,
      "Ġaffections": 2580,
      "Ġbetween": 2581,
      "Ġadvanced": 2582,
      "Ġpurpose": 2583,
      "Ġcontrary": 2584,
      "Ġsolemnity": 2585,
      "Ġsummer": 2586,
      "Ġconduct": 2587,
      "Ġmurderer": 2588,
      "Ġviolent": 2589,
      "losophy": 2590,
      "Ġtidings": 2591,
      "Ġmattock": 2592,
      "Ġwater": 2593,
      "Ġwagon": 2594,
      "Ġburden": 2595,
      "Ġcease": 2596,
      "Ġpowder": 2597,
      "Ġphilosophy": 2598,
      "Ġpublic": 2599,
      "Ġinconstant": 2600,
      "ĠWednesday": 2601,
      "Ġstruck": 2602,
      "Ġliberty": 2603,
      "Ġlikeness": 2604,
      "ĠLammas": 2605,
      "Ġview": 2606,
      "Ġjudgment": 2607,
      "Ġpossess": 2608,
      "Ġunaccustom": 2609,
      "Ġexchange": 2610,
      ";--": 2611,
      "Hold": 2612,
      "OGUE": 2613,
      "Qu": 2614,
      "Romeo": 2615,
      "ROL": 2616,
      "To": 2617,
      "Yea": 2618,
      "Zounds": 2619,
      "ae": 2620,
      "ait": 2621,
      "ald": 2622,
      "but": 2623,
      "bes": 2624,
      "bour": 2625,
      "bell": 2626,
      "bea": 2627,
      "boy": 2628,
      "bsequ": 2629,
      "ci": 2630,
      "cy": 2631,
      "cre": 2632,
      "cqu": 2633,
      "cry": 2634,
      "cio": 2635,
      "creature": 2636,
      "dows": 2637,
      "ex": 2638,
      "ey": 2639,
      "eve": 2640,
      "ect": 2641,
      "fan": 2642,
      "full": 2643,
      "foot": 2644,
      "get": 2645,
      "gle": 2646,
      "give": 2647,
      "gion": 2648,
      "gage": 2649,
      "goose": 2650,
      "gory": 2651,
      "hrew": 2652,
      "ia": 2653,
      "ian": 2654,
      "iant": 2655,
      "iers": 2656,
      "ips": 2657,
      "iance": 2658,
      "ipt": 2659,
      "iately": 2660,
      "joice": 2661,
      "ject": 2662,
      "ks": 2663,
      "king": 2664,
      "kes": 2665,
      "lo": 2666,
      "lot": 2667,
      "len": 2668,
      "let": 2669,
      "last": 2670,
      "lers": 2671,
      "lies": 2672,
      "mal": 2673,
      "more": 2674,
      "mus": 2675,
      "maid": 2676,
      "mstance": 2677,
      "ny": 2678,
      "nat": 2679,
      "nown": 2680,
      "ncher": 2681,
      "oard": 2682,
      "ogue": 2683,
      "ops": 2684,
      "ope": 2685,
      "obed": 2686,
      "ple": 2687,
      "pised": 2688,
      "ror": 2689,
      "ran": 2690,
      "rine": 2691,
      "rance": 2692,
      "rough": 2693,
      "sil": 2694,
      "song": 2695,
      "sire": 2696,
      "sick": 2697,
      "sol": 2698,
      "shes": 2699,
      "simp": 2700,
      "ship": 2701,
      "ts": 2702,
      "tain": 2703,
      "tic": 2704,
      "tiest": 2705,
      "tempt": 2706,
      "ue": 2707,
      "vate": 2708,
      "vail": 2709,
      "vior": 2710,
      "wood": 2711,
      "wart": 2712,
      "which": 2713,
      "wise": 2714,
      "wife": 2715,
      "zen": 2716,
      "zel": 2717,
      "Ġ&": 2718,
      "Ġrave": 2719,
      "ĠQu": 2720,
      "Ġte": 2721,
      "Ġtit": 2722,
      "Ġten": 2723,
      "Ġtut": 2724,
      "Ġted": 2725,
      "Ġtra": 2726,
      "Ġtrow": 2727,
      "Ġtry": 2728,
      "Ġteet": 2729,
      "Ġtable": 2730,
      "Ġtaken": 2731,
      "hel": 2732,
      "heart": 2733,
      "Ġant": 2734,
      "Ġaqu": 2735,
      "Ġafore": 2736,
      "Ġable": 2737,
      "Ġamen": 2738,
      "Ġaught": 2739,
      "Ġsy": 2740,
      "Ġsur": 2741,
      "Ġsch": 2742,
      "Ġsal": 2743,
      "Ġshi": 2744,
      "Ġsie": 2745,
      "Ġsalt": 2746,
      "Ġsort": 2747,
      "Ġsink": 2748,
      "Ġsings": 2749,
      "Ġsign": 2750,
      "Ġsac": 2751,
      "Ġsister": 2752,
      "Ġsnow": 2753,
      "Ġmor": 2754,
      "Ġmut": 2755,
      "Ġmart": 2756,
      "Ġmaking": 2757,
      "Ġmotion": 2758,
      "Ġmouth": 2759,
      "Ġmethinks": 2760,
      "Ġwin": 2761,
      "Ġwent": 2762,
      "Ġware": 2763,
      "Ġwink": 2764,
      "Ġwhip": 2765,
      "Ġwert": 2766,
      "Ġwaken": 2767,
      "iny": 2768,
      "hant": 2769,
      "havior": 2770,
      "rent": 2771,
      "resh": 2772,
      "Ġbo": 2773,
      "Ġbone": 2774,
      "Ġbore": 2775,
      "Ġbra": 2776,
      "Ġband": 2777,
      "Ġbrave": 2778,
      "Ġbag": 2779,
      "Ġbier": 2780,
      "Ġbask": 2781,
      "Ġbott": 2782,
      "ndone": 2783,
      "ndeed": 2784,
      "ndsire": 2785,
      "isure": 2786,
      "ision": 2787,
      "isans": 2788,
      "lls": 2789,
      "llor": 2790,
      "llent": 2791,
      "Ġfle": 2792,
      "Ġfour": 2793,
      "Ġfru": 2794,
      "Ġfant": 2795,
      "Ġfish": 2796,
      "Ġfled": 2797,
      "Ġfun": 2798,
      "Ġfright": 2799,
      "Ġfresh": 2800,
      "erately": 2801,
      "Ġlen": 2802,
      "Ġlour": 2803,
      "Ġlant": 2804,
      "Ġlest": 2805,
      "Ġlose": 2806,
      "Ġlab": 2807,
      "Ġlaz": 2808,
      "ĠIm": 2809,
      "ĠIndeed": 2810,
      "its": 2811,
      "iting": 2812,
      "ities": 2813,
      "itiful": 2814,
      "itae": 2815,
      "Ġdet": 2816,
      "Ġdim": 2817,
      "Ġdif": 2818,
      "Ġdro": 2819,
      "Ġdaught": 2820,
      "Ġdull": 2821,
      "Ġdeter": 2822,
      "Ġdign": 2823,
      "Ġdun": 2824,
      "orm": 2825,
      "orus": 2826,
      "Ġthin": 2827,
      "Ġthir": 2828,
      "Ġthri": 2829,
      "Ġthreat": 2830,
      "Ġnim": 2831,
      "Ġnice": 2832,
      "Ġnought": 2833,
      "Ġniece": 2834,
      "Ġcat": 2835,
      "Ġcur": 2836,
      "Ġcher": 2837,
      "Ġcra": 2838,
      "Ġcast": 2839,
      "Ġcand": 2840,
      "Ġcave": 2841,
      "Ġcatch": 2842,
      "Ġcorn": 2843,
      "Ġcun": 2844,
      "Ġcarry": 2845,
      "Ġcats": 2846,
      "Ġcitizen": 2847,
      "oning": 2848,
      "arch": 2849,
      "veth": 2850,
      "member": 2851,
      "ĠTor": 2852,
      "ĠTru": 2853,
      "ĠTaking": 2854,
      "ĠTush": 2855,
      "ĠToward": 2856,
      "Ġtops": 2857,
      "set": 2858,
      "semb": 2859,
      "sence": 2860,
      "sellor": 2861,
      "Ġheld": 2862,
      "Ġheed": 2863,
      "Ġheard": 2864,
      "oting": 2865,
      "otpan": 2866,
      "Ġhild": 2867,
      "Ġhorses": 2868,
      "anity": 2869,
      "Ġpe": 2870,
      "Ġpul": 2871,
      "Ġpra": 2872,
      "Ġpath": 2873,
      "Ġport": 2874,
      "Ġpap": 2875,
      "Ġpest": 2876,
      "Ġpage": 2877,
      "Ġpity": 2878,
      "Ġpun": 2879,
      "Ġpains": 2880,
      "Ġpotion": 2881,
      "Ġpump": 2882,
      "Ġpair": 2883,
      "Ġpursu": 2884,
      "Ġow": 2885,
      "Ġope": 2886,
      "Ġobsequ": 2887,
      "Ġyon": 2888,
      "ste": 2889,
      "str": 2890,
      "stain": 2891,
      "stone": 2892,
      "stru": 2893,
      "ĠAb": 2894,
      "ĠAf": 2895,
      "ĠAmen": 2896,
      "Ġgen": 2897,
      "Ġgear": 2898,
      "Ġgrow": 2899,
      "Ġgrant": 2900,
      "Ġgrows": 2901,
      "Ġbeam": 2902,
      "Ġbeth": 2903,
      "Ġbears": 2904,
      "Ġbecome": 2905,
      "Ġbesh": 2906,
      "ene": 2907,
      "enus": 2908,
      "etr": 2909,
      "ets": 2910,
      "athe": 2911,
      "ates": 2912,
      "ated": 2913,
      "aying": 2914,
      "ĠRight": 2915,
      "Ġinqu": 2916,
      "Ġinfection": 2917,
      "Ġinstru": 2918,
      "lest": 2919,
      "leven": 2920,
      "ĠWh": 2921,
      "Ġmend": 2922,
      "Ġmesse": 2923,
      "urvy": 2924,
      "Ġissu": 2925,
      "utch": 2926,
      "ution": 2927,
      "utation": 2928,
      "chre": 2929,
      "cease": 2930,
      "ado": 2931,
      "ading": 2932,
      "adise": 2933,
      "Ġhap": 2934,
      "Ġhazel": 2935,
      "ĠMond": 2936,
      "ĠMust": 2937,
      "ĠMask": 2938,
      "ĠMany": 2939,
      "ĠMean": 2940,
      "ĠSay": 2941,
      "ĠSend": 2942,
      "ĠSleep": 2943,
      "lder": 2944,
      "irt": 2945,
      "eshrew": 2946,
      "espised": 2947,
      "Ġegg": 2948,
      "Ġeleven": 2949,
      "ĠBid": 2950,
      "ĠBear": 2951,
      "ĠBea": 2952,
      "ĠBoth": 2953,
      "ĠBel": 2954,
      "ĠBeshrew": 2955,
      "ĠChe": 2956,
      "ĠCom": 2957,
      "ĠOpen": 2958,
      "edic": 2959,
      "rick": 2960,
      "rifice": 2961,
      "Ġfors": 2962,
      "Ġforty": 2963,
      "Ġforward": 2964,
      "Ġforfeit": 2965,
      "Ġstore": 2966,
      "Ġstout": 2967,
      "Ġstep": 2968,
      "Ġstick": 2969,
      "Ġstol": 2970,
      "Ġstab": 2971,
      "Ġstones": 2972,
      "Ġstory": 2973,
      "Ġstony": 2974,
      "Ġstorm": 2975,
      "ĠFear": 2976,
      "ĠFall": 2977,
      "ĠFull": 2978,
      "ĠFrench": 2979,
      "Ġliqu": 2980,
      "Ġlimb": 2981,
      "Ġlivery": 2982,
      "Ġlimit": 2983,
      "Ġdeare": 2984,
      "Ġdeaf": 2985,
      "Ġdebt": 2986,
      "Ġdeceive": 2987,
      "Ġdemes": 2988,
      "Ġundone": 2989,
      "ĠJust": 2990,
      "ĠLo": 2991,
      "ĠLu": 2992,
      "ĠLea": 2993,
      "ĠLive": 2994,
      "ĠLest": 2995,
      "ĠLies": 2996,
      "ĠLaying": 2997,
      "idd": 2998,
      "idow": 2999,
      "idence": 3000,
      "Ġwest": 3001,
      "Ġweek": 3002,
      "Ġwearing": 3003,
      "Ġweeds": 3004,
      "Ġwealth": 3005,
      "ourses": 3006,
      "ĠHall": 3007,
      "ĠHoly": 3008,
      "ĠHonest": 3009,
      "ĠPl": 3010,
      "ĠPro": 3011,
      "ĠPret": 3012,
      "ĠPardon": 3013,
      "ĠPROL": 3014,
      "ĠPotpan": 3015,
      "ĠPrick": 3016,
      "ĠEn": 3017,
      "ĠEver": 3018,
      "Ġsoar": 3019,
      "Ġherbs": 3020,
      "Ġherald": 3021,
      "Ġloves": 3022,
      "Ġlovest": 3023,
      "Ġlovely": 3024,
      "ular": 3025,
      "ulchre": 3026,
      "cks": 3027,
      "ckoning": 3028,
      "Ġashes": 3029,
      "Ġfavour": 3030,
      "verse": 3031,
      "verty": 3032,
      "Ġshare": 3033,
      "Ġsharp": 3034,
      "Ġshadows": 3035,
      "ashing": 3036,
      "ellist": 3037,
      "rage": 3038,
      "ĠThree": 3039,
      "ĠThird": 3040,
      "ĠThrough": 3041,
      "ĠGrief": 3042,
      "hipp": 3043,
      "Ġshed": 3044,
      "Ġbutt": 3045,
      "rupt": 3046,
      "Ġref": 3047,
      "Ġrece": 3048,
      "Ġreign": 3049,
      "Ġrevive": 3050,
      "Ġrejoice": 3051,
      "Ġreckoning": 3052,
      "Ġshot": 3053,
      "Ġshrie": 3054,
      "Ġshown": 3055,
      "Ġshop": 3056,
      "Ġshoes": 3057,
      "Ġsusp": 3058,
      "Ġsullen": 3059,
      "Ġdoor": 3060,
      "Ġdoors": 3061,
      "akest": 3062,
      "Ġnose": 3063,
      "Ġmanage": 3064,
      "Ġmanner": 3065,
      "Ġmanners": 3066,
      "Ġmangled": 3067,
      "Ġmansion": 3068,
      "Ġnest": 3069,
      "Ġneck": 3070,
      "Ġneigh": 3071,
      "Ġseal": 3072,
      "Ġseest": 3073,
      "Ġpror": 3074,
      "Ġpros": 3075,
      "Ġprol": 3076,
      "Ġprop": 3077,
      "Ġmuff": 3078,
      "Ġvice": 3079,
      "Ġvol": 3080,
      "Ġvial": 3081,
      "Ġvitae": 3082,
      "Ġvanity": 3083,
      "Ġspy": 3084,
      "Ġsple": 3085,
      "Ġspid": 3086,
      "Ġspake": 3087,
      "Ġsport": 3088,
      "Ġspurs": 3089,
      "Ġspade": 3090,
      "Ġspring": 3091,
      "Ġnightly": 3092,
      "Ġwhence": 3093,
      "Ġarray": 3094,
      "Ġhereab": 3095,
      "Ġhereaf": 3096,
      "Ġknight": 3097,
      "ĠDry": 3098,
      "ĠDies": 3099,
      "ĠDespised": 3100,
      "amour": 3101,
      "amine": 3102,
      "usion": 3103,
      "Ġamaz": 3104,
      "Ġamorous": 3105,
      "Ġcanker": 3106,
      "Ġrat": 3107,
      "Ġrate": 3108,
      "Ġrite": 3109,
      "Ġrhyme": 3110,
      "ĠExamine": 3111,
      "Ġthence": 3112,
      "gued": 3113,
      "guish": 3114,
      "ict": 3115,
      "icion": 3116,
      "Ġhop": 3117,
      "Ġours": 3118,
      "Ġblow": 3119,
      "Ġblade": 3120,
      "ortion": 3121,
      "ape": 3122,
      "aks": 3123,
      "aker": 3124,
      "aked": 3125,
      "Ġjour": 3126,
      "Ġjau": 3127,
      "Ġjust": 3128,
      "ĠYes": 3129,
      "ĠYea": 3130,
      "Ġoutrage": 3131,
      "ppy": 3132,
      "els": 3133,
      "elve": 3134,
      "estion": 3135,
      "estable": 3136,
      "Ġfairly": 3137,
      "Ġfairies": 3138,
      "ferent": 3139,
      "Ġmadman": 3140,
      "onging": 3141,
      "Ġpoverty": 3142,
      "Ġseem": 3143,
      "Ġseeing": 3144,
      "Ġseems": 3145,
      "nger": 3146,
      "Ġworms": 3147,
      "Ġdismal": 3148,
      "Ġdisobed": 3149,
      "Ġquite": 3150,
      "Ġquench": 3151,
      "Ġquestion": 3152,
      "Ġaloud": 3153,
      "Ġalike": 3154,
      "Ġago": 3155,
      "Ġunb": 3156,
      "Ġunf": 3157,
      "Ġunk": 3158,
      "Ġunw": 3159,
      "Ġunless": 3160,
      "Ġloathed": 3161,
      "Ġlocks": 3162,
      "ĠThough": 3163,
      "ired": 3164,
      "Ġcomb": 3165,
      "Ġpress": 3166,
      "Ġpresence": 3167,
      "ction": 3168,
      "Ġtrudge": 3169,
      "Ġabh": 3170,
      "Ġabu": 3171,
      "Ġplain": 3172,
      "Ġlikewise": 3173,
      "Ġlights": 3174,
      "Ġenj": 3175,
      "Ġenmity": 3176,
      "Ġhousehold": 3177,
      "Ġearl": 3178,
      "ĠCapel": 3179,
      "Ġbrings": 3180,
      "Ġbrains": 3181,
      "Ġbroke": 3182,
      "Ġbreathed": 3183,
      "ilty": 3184,
      "Ġtwain": 3185,
      "Ġtwelve": 3186,
      "Ġmiss": 3187,
      "Ġmist": 3188,
      "Ġmisfort": 3189,
      "Ġnursed": 3190,
      "Ġcalled": 3191,
      "emned": 3192,
      "ossed": 3193,
      "Ġclub": 3194,
      "Ġnewly": 3195,
      "Ġparts": 3196,
      "Ġpartisans": 3197,
      "ĠSoft": 3198,
      "ĠBeg": 3199,
      "Ġrushes": 3200,
      "Ġflies": 3201,
      "Ġflatter": 3202,
      "Ġdearly": 3203,
      "Ġeyesight": 3204,
      "neath": 3205,
      "perous": 3206,
      "ĠUnder": 3207,
      "Ġawake": 3208,
      "Ġfoll": 3209,
      "ĠVal": 3210,
      "ĠVenus": 3211,
      "Ġstays": 3212,
      "Ġscene": 3213,
      "Ġscape": 3214,
      "Ġhearing": 3215,
      "ĠNoise": 3216,
      "iled": 3217,
      "Ġchallen": 3218,
      "Ġstret": 3219,
      "Ġstreaks": 3220,
      "Ġfinds": 3221,
      "ocks": 3222,
      "Ġwrite": 3223,
      "Ġwrought": 3224,
      "Ġdrew": 3225,
      "Ġdescend": 3226,
      "ĠSeal": 3227,
      "Ġjoys": 3228,
      "Ġprayers": 3229,
      "agate": 3230,
      "Ġleap": 3231,
      "itting": 3232,
      "Ġgraves": 3233,
      "ĠMusic": 3234,
      "ĠStill": 3235,
      "ĠStop": 3236,
      "Ġdreamt": 3237,
      "sweet": 3238,
      "ulls": 3239,
      "Ġsounding": 3240,
      "Ġsoundly": 3241,
      "Ġleg": 3242,
      "Ġlegs": 3243,
      "Ġleisure": 3244,
      "Ġbegan": 3245,
      "Ġbegins": 3246,
      "Ġbeauteous": 3247,
      "Ġmothers": 3248,
      "Ġwhore": 3249,
      "Ġwhist": 3250,
      "Ġhelps": 3251,
      "Ġintend": 3252,
      "Ġtroth": 3253,
      "Ġsouls": 3254,
      "Ġended": 3255,
      "Ġsmoke": 3256,
      "Ġsmooth": 3257,
      "ission": 3258,
      "Ġoffer": 3259,
      "Ġoffice": 3260,
      "Ġstrain": 3261,
      "Ġraised": 3262,
      "Ġadventure": 3263,
      "Ġcouldst": 3264,
      "Ġgriefs": 3265,
      "Ġbestri": 3266,
      "ĠSometime": 3267,
      "Ġeverlast": 3268,
      "Ġleaves": 3269,
      "ival": 3270,
      "Ġtorment": 3271,
      "Ġtorches": 3272,
      "Ġsleeps": 3273,
      "Ġwinds": 3274,
      "Ġwindows": 3275,
      "Ġwatching": 3276,
      "Ġshamest": 3277,
      "Ġconfusion": 3278,
      "Ġcompare": 3279,
      "beat": 3280,
      "beseeming": 3281,
      "Ġtrencher": 3282,
      "Ġserp": 3283,
      "Ġmerit": 3284,
      "Ġmerri": 3285,
      "Ġways": 3286,
      "Ġdrawn": 3287,
      "Ġchanged": 3288,
      "Ġheaviness": 3289,
      "Ġperforce": 3290,
      "Ġpassing": 3291,
      "Ġpassado": 3292,
      "Ġyew": 3293,
      "Ġforgot": 3294,
      "Ġdisco": 3295,
      "Ġdiscourses": 3296,
      "Ġappear": 3297,
      "Ġburnt": 3298,
      "Ġfools": 3299,
      "Ġfoolish": 3300,
      "Ġcamest": 3301,
      "Ġhung": 3302,
      "Ġprice": 3303,
      "Ġpride": 3304,
      "Ġprivate": 3305,
      "Ġprocure": 3306,
      "Ġthankful": 3307,
      "Ġplays": 3308,
      "Ġmistres": 3309,
      "cumstance": 3310,
      "ubber": 3311,
      "Ġvestal": 3312,
      "Ġsilk": 3313,
      "Ġsorrows": 3314,
      "Ġthrone": 3315,
      "Ġnative": 3316,
      "Ġnatural": 3317,
      "Ġpurged": 3318,
      "Ġmeeting": 3319,
      "Ġdelay": 3320,
      "Ġdeliver": 3321,
      "Ġcontin": 3322,
      "Ġcontent": 3323,
      "Ġcounsellor": 3324,
      "Ġtrim": 3325,
      "Ġwomanish": 3326,
      "Ġfights": 3327,
      "Ġlearned": 3328,
      "Ġdump": 3329,
      "Ġduellist": 3330,
      "ĠAttend": 3331,
      "Ġgrandsire": 3332,
      "ations": 3333,
      "Ġdevotion": 3334,
      "Ġasked": 3335,
      "Ġresol": 3336,
      "Ġroaring": 3337,
      "Ġrobes": 3338,
      "Ġdisple": 3339,
      "Ġdisposition": 3340,
      "Ġdistill": 3341,
      "Ġdistemper": 3342,
      "Ġserved": 3343,
      "Ġsits": 3344,
      "Ġsingle": 3345,
      "Ġsingular": 3346,
      "Ġmerciful": 3347,
      "Ġwanting": 3348,
      "Ġdrugs": 3349,
      "Ġdooms": 3350,
      "Ġpens": 3351,
      "Ġpenny": 3352,
      "Ġguilty": 3353,
      "ĠShow": 3354,
      "Ġunderneath": 3355,
      "Ġrepent": 3356,
      "Ġenemies": 3357,
      "Ġconfessor": 3358,
      "Ġfeasting": 3359,
      "jured": 3360,
      "lict": 3361,
      "vances": 3362,
      "Ġaccid": 3363,
      "Ġaccount": 3364,
      "Ġsaints": 3365,
      "Ġmightst": 3366,
      "Ġburning": 3367,
      "Ġfinger": 3368,
      "Ġdrift": 3369,
      "Ġpalace": 3370,
      "Ġpilot": 3371,
      "Ġoverth": 3372,
      "ĠArise": 3373,
      "Ġstrife": 3374,
      "Ġremain": 3375,
      "Ġsubject": 3376,
      "ĠDrawing": 3377,
      "Ġrank": 3378,
      "Ġprettiest": 3379,
      "Ġwedded": 3380,
      "Ġentrance": 3381,
      "Ġskulls": 3382,
      "Ġwounded": 3383,
      "Ġchoice": 3384,
      "Ġcholer": 3385,
      "Ġcrying": 3386,
      "stantial": 3387,
      "Ġgallant": 3388,
      "Ġgallops": 3389,
      "Ġgroans": 3390,
      "Ġoften": 3391,
      "Ġhangs": 3392,
      "ĠChorus": 3393,
      "ĠPray": 3394,
      "ĠPrince": 3395,
      "Ġvaliant": 3396,
      "Ġroses": 3397,
      "Ġhoarse": 3398,
      "Ġbitterly": 3399,
      "clock": 3400,
      "mities": 3401,
      "Ġterm": 3402,
      "Ġterror": 3403,
      "Ġsentence": 3404,
      "Ġbrawl": 3405,
      "Ġbrawls": 3406,
      "Ġfee": 3407,
      "Ġdanger": 3408,
      "Ġdancing": 3409,
      "Ġdivine": 3410,
      "Ġtowards": 3411,
      "ĠCitizens": 3412,
      "Ġdefy": 3413,
      "ĠHelen": 3414,
      "ĠPoison": 3415,
      "Ġknocks": 3416,
      "Ġworser": 3417,
      "Ġworship": 3418,
      "Ġexcels": 3419,
      "Ġexcellent": 3420,
      "Ġsmiles": 3421,
      "Ġdelights": 3422,
      "Ġpilgrims": 3423,
      "cover": 3424,
      "Ġtyrant": 3425,
      "Ġmortals": 3426,
      "Ġwonder": 3427,
      "Ġblest": 3428,
      "Ġbigger": 3429,
      "Ġlodging": 3430,
      "Ġdrag": 3431,
      "Ġdram": 3432,
      "Ġcircumstance": 3433,
      "Ġcarrion": 3434,
      "mediately": 3435,
      "Ġparadise": 3436,
      "Ġperson": 3437,
      "Ġpersons": 3438,
      "ĠAmong": 3439,
      "Ġmeantime": 3440,
      "Ġharlot": 3441,
      "Ġforbid": 3442,
      "Ġforbear": 3443,
      "Ġweapon": 3444,
      "Ġweapons": 3445,
      "ĠHaving": 3446,
      "Ġsoldier": 3447,
      "Ġgossip": 3448,
      "Ġornaments": 3449,
      "Ġwormwood": 3450,
      "Ġpresses": 3451,
      "Ġmisery": 3452,
      "Ġmiserable": 3453,
      "Ġscarlet": 3454,
      "Ġdespair": 3455,
      "Ġgladly": 3456,
      "Ġpalmers": 3457,
      "gainst": 3458,
      "juries": 3459,
      "worthy": 3460,
      "weary": 3461,
      "Ġutter": 3462,
      "Ġorder": 3463,
      "Ġvengeance": 3464,
      "Ġtailor": 3465,
      "Ġapace": 3466,
      "Ġsaucy": 3467,
      "Ġserving": 3468,
      "Ġmoody": 3469,
      "Ġfelt": 3470,
      "Ġfestival": 3471,
      "Ġlusty": 3472,
      "Ġnumber": 3473,
      "Ġcrutch": 3474,
      "Ġparents": 3475,
      "Ġbehind": 3476,
      "Ġmedl": 3477,
      "ĠScurvy": 3478,
      "Ġeffect": 3479,
      "Ġstarts": 3480,
      "Ġstiff": 3481,
      "Ġstinted": 3482,
      "ĠNightly": 3483,
      "ĠHapp": 3484,
      "Ġfairer": 3485,
      "ĠGregory": 3486,
      "Ġsepulchre": 3487,
      "Ġholid": 3488,
      "Ġsometimes": 3489,
      "Ġdishonour": 3490,
      "Ġcommon": 3491,
      "Ġclimb": 3492,
      "Ġgreeting": 3493,
      "Ġquarrelling": 3494,
      "Ġcomplime": 3495,
      "Ġtremble": 3496,
      "Ġminstrels": 3497,
      "Ġtriumph": 3498,
      "ĠHenceforward": 3499,
      "Ġunlucky": 3500,
      "Ġwagoner": 3501,
      "bearer": 3502,
      "cquaint": 3503,
      "eyed": 3504,
      "fully": 3505,
      "leness": 3506,
      "music": 3507,
      "silver": 3508,
      "simple": 3509,
      "Ġraven": 3510,
      "Ġtutor": 3511,
      "Ġtedious": 3512,
      "Ġteeth": 3513,
      "Ġantic": 3514,
      "Ġaqua": 3515,
      "Ġschool": 3516,
      "Ġsiege": 3517,
      "Ġsacrifice": 3518,
      "Ġmutiny": 3519,
      "Ġbandy": 3520,
      "Ġbaggage": 3521,
      "Ġbottom": 3522,
      "Ġfruit": 3523,
      "Ġlantern": 3524,
      "Ġlazy": 3525,
      "Ġdetestable": 3526,
      "Ġdifferent": 3527,
      "Ġdaughters": 3528,
      "Ġdetermine": 3529,
      "Ġthirty": 3530,
      "Ġthreaten": 3531,
      "Ġnimble": 3532,
      "Ġcherish": 3533,
      "Ġcorns": 3534,
      "Ġcunning": 3535,
      "Ġcitizens": 3536,
      "ĠTrue": 3537,
      "ĠTowards": 3538,
      "Ġpaper": 3539,
      "Ġpestil": 3540,
      "Ġobsequies": 3541,
      "Ġgeneral": 3542,
      "Ġbeams": 3543,
      "Ġbethink": 3544,
      "Ġbeshrew": 3545,
      "Ġinquire": 3546,
      "Ġinstruments": 3547,
      "Ġmessenger": 3548,
      "ĠMonday": 3549,
      "ĠMaskers": 3550,
      "ĠMeaning": 3551,
      "ĠBeaut": 3552,
      "ĠFalls": 3553,
      "Ġlimbs": 3554,
      "Ġdeceived": 3555,
      "Ġdemesnes": 3556,
      "ĠPretty": 3557,
      "ĠPROLOGUE": 3558,
      "ĠEvermore": 3559,
      "Ġrevived": 3560,
      "Ġsuspicion": 3561,
      "Ġneighbour": 3562,
      "Ġprosperous": 3563,
      "Ġvolume": 3564,
      "Ġhereabout": 3565,
      "Ġhereafter": 3566,
      "Ġamazed": 3567,
      "Ġjaunt": 3568,
      "Ġdisobedient": 3569,
      "Ġhouseholds": 3570,
      "Ġmisfortune": 3571,
      "Ġflattering": 3572,
      "Ġchallenge": 3573,
      "Ġeverlasting": 3574,
      "ubbering": 3575,
      "ĠAttendants": 3576,
      "';": 3577,
      "'re": 3578,
      "'--": 3579,
      "?--": 3580,
      "An": 3581,
      "By": 3582,
      "But": 3583,
      "How": 3584,
      "In": 3585,
      "It": 3586,
      "Juliet": 3587,
      "Lord": 3588,
      "My": 3589,
      "More": 3590,
      "No": 3591,
      "Nurse": 3592,
      "Proud": 3593,
      "SE": 3594,
      "Signior": 3595,
      "Tw": 3596,
      "Then": 3597,
      "Well": 3598,
      "Wilt": 3599,
      "When": 3600,
      "Where": 3601,
      "Your": 3602,
      "aim": 3603,
      "aus": 3604,
      "aise": 3605,
      "aeter": 3606,
      "abe": 3607,
      "agued": 3608,
      "action": 3609,
      "bb": 3610,
      "bit": 3611,
      "bet": 3612,
      "bid": 3613,
      "bly": 3614,
      "bus": 3615,
      "brow": 3616,
      "book": 3617,
      "bel": 3618,
      "bro": 3619,
      "bird": 3620,
      "board": 3621,
      "cor": 3622,
      "can": 3623,
      "cat": 3624,
      "cad": 3625,
      "cke": 3626,
      "com": 3627,
      "cour": 3628,
      "cent": 3629,
      "cil": 3630,
      "cam": 3631,
      "ciet": 3632,
      "cile": 3633,
      "cled": 3634,
      "cree": 3635,
      "cup": 3636,
      "cats": 3637,
      "cation": 3638,
      "chen": 3639,
      "carri": 3640,
      "cross": 3641,
      "ccess": 3642,
      "centio": 3643,
      "do": 3644,
      "des": 3645,
      "dove": 3646,
      "dart": 3647,
      "dic": 3648,
      "dies": 3649,
      "dite": 3650,
      "dost": 3651,
      "dro": 3652,
      "dence": 3653,
      "dona": 3654,
      "div": 3655,
      "dress": 3656,
      "ef": 3657,
      "ew": 3658,
      "ere": 3659,
      "eer": 3660,
      "eor": 3661,
      "eing": 3662,
      "ead": 3663,
      "eld": 3664,
      "eather": 3665,
      "eech": 3666,
      "evish": 3667,
      "erest": 3668,
      "ebus": 3669,
      "fing": 3670,
      "fill": 3671,
      "fell": 3672,
      "fath": 3673,
      "fall": 3674,
      "fess": 3675,
      "father": 3676,
      "fold": 3677,
      "face": 3678,
      "fling": 3679,
      "fix": 3680,
      "flies": 3681,
      "fits": 3682,
      "faction": 3683,
      "go": 3684,
      "gt": 3685,
      "gy": 3686,
      "gat": 3687,
      "gour": 3688,
      "gent": 3689,
      "gall": 3690,
      "gry": 3691,
      "gic": 3692,
      "gers": 3693,
      "gentle": 3694,
      "gger": 3695,
      "gress": 3696,
      "gross": 3697,
      "gills": 3698,
      "grace": 3699,
      "gression": 3700,
      "hoo": 3701,
      "hour": 3702,
      "hra": 3703,
      "hunt": 3704,
      "horses": 3705,
      "iar": 3706,
      "igu": 3707,
      "ipp": 3708,
      "ierc": 3709,
      "iable": 3710,
      "iber": 3711,
      "ju": 3712,
      "jour": 3713,
      "jac": 3714,
      "jury": 3715,
      "jealous": 3716,
      "kful": 3717,
      "kins": 3718,
      "krupt": 3719,
      "lan": 3720,
      "low": 3721,
      "love": 3722,
      "lous": 3723,
      "lady": 3724,
      "loy": 3725,
      "law": 3726,
      "lance": 3727,
      "lig": 3728,
      "lings": 3729,
      "lace": 3730,
      "lower": 3731,
      "lub": 3732,
      "lves": 3733,
      "lvish": 3734,
      "loved": 3735,
      "liest": 3736,
      "lks": 3737,
      "locks": 3738,
      "mi": 3739,
      "min": 3740,
      "mil": 3741,
      "mand": 3742,
      "mod": 3743,
      "mak": 3744,
      "mong": 3745,
      "mps": 3746,
      "mper": 3747,
      "mark": 3748,
      "marry": 3749,
      "mory": 3750,
      "mates": 3751,
      "mired": 3752,
      "mission": 3753,
      "ns": 3754,
      "non": 3755,
      "nut": 3756,
      "nch": 3757,
      "nal": 3758,
      "nurse": 3759,
      "nge": 3760,
      "name": 3761,
      "nous": 3762,
      "nel": 3763,
      "natch": 3764,
      "nation": 3765,
      "nants": 3766,
      "nicious": 3767,
      "oe": 3768,
      "of": 3769,
      "oin": 3770,
      "oak": 3771,
      "oise": 3772,
      "oem": 3773,
      "oans": 3774,
      "oled": 3775,
      "ollow": 3776,
      "oken": 3777,
      "oci": 3778,
      "okes": 3779,
      "ozen": 3780,
      "ogued": 3781,
      "ocation": 3782,
      "ogy": 3783,
      "phe": 3784,
      "pin": 3785,
      "por": 3786,
      "ped": 3787,
      "pri": 3788,
      "pter": 3789,
      "pest": 3790,
      "pta": 3791,
      "post": 3792,
      "pig": 3793,
      "paint": 3794,
      "pless": 3795,
      "pac": 3796,
      "pires": 3797,
      "picious": 3798,
      "portion": 3799,
      "pired": 3800,
      "rm": 3801,
      "ron": 3802,
      "rous": 3803,
      "rind": 3804,
      "rother": 3805,
      "rate": 3806,
      "rouse": 3807,
      "rps": 3808,
      "rans": 3809,
      "rist": 3810,
      "rged": 3811,
      "rinks": 3812,
      "ruly": 3813,
      "rating": 3814,
      "raining": 3815,
      "rhyme": 3816,
      "she": 3817,
      "son": 3818,
      "sar": 3819,
      "shi": 3820,
      "ssel": 3821,
      "sic": 3822,
      "spe": 3823,
      "sier": 3824,
      "sign": 3825,
      "ssed": 3826,
      "spect": 3827,
      "scre": 3828,
      "soled": 3829,
      "to": 3830,
      "tle": 3831,
      "tly": 3832,
      "tent": 3833,
      "thi": 3834,
      "take": 3835,
      "tter": 3836,
      "took": 3837,
      "tish": 3838,
      "tide": 3839,
      "town": 3840,
      "tice": 3841,
      "tled": 3842,
      "tnight": 3843,
      "tiz": 3844,
      "tires": 3845,
      "tered": 3846,
      "tossed": 3847,
      "ug": 3848,
      "und": 3849,
      "ugh": 3850,
      "uch": 3851,
      "uest": 3852,
      "ung": 3853,
      "uance": 3854,
      "upt": 3855,
      "under": 3856,
      "ugment": 3857,
      "ucing": 3858,
      "vise": 3859,
      "voy": 3860,
      "vio": 3861,
      "vity": 3862,
      "vised": 3863,
      "viron": 3864,
      "ws": 3865,
      "wer": 3866,
      "wit": 3867,
      "will": 3868,
      "why": 3869,
      "wink": 3870,
      "waking": 3871,
      "wild": 3872,
      "wench": 3873,
      "wield": 3874,
      "whel": 3875,
      "widow": 3876,
      "xe": 3877,
      "xes": 3878,
      "xter": 3879,
      "yr": 3880,
      "ys": 3881,
      "yes": 3882,
      "ynt": 3883,
      "yers": 3884,
      "ymn": 3885,
      "yves": 3886,
      "ze": 3887,
      "zz": 3888,
      "zes": 3889,
      "Ġer": 3890,
      "Ġet": 3891,
      "Ġeter": 3892,
      "Ġign": 3893,
      "Ġvers": 3894,
      "Ġtas": 3895,
      "Ġtall": 3896,
      "Ġtack": 3897,
      "Ġtard": 3898,
      "Ġtest": 3899,
      "Ġtide": 3900,
      "Ġtorn": 3901,
      "Ġtilt": 3902,
      "Ġtem": 3903,
      "Ġtig": 3904,
      "Ġtun": 3905,
      "Ġtree": 3906,
      "Ġtarry": 3907,
      "Ġtatter": 3908,
      "Ġtetch": 3909,
      "Ġtrace": 3910,
      "Ġtune": 3911,
      "Ġtallow": 3912,
      "Ġtempt": 3913,
      "Ġtainted": 3914,
      "Ġtips": 3915,
      "Ġtipt": 3916,
      "Ġtaker": 3917,
      "heard": 3918,
      "hetu": 3919,
      "Ġach": 3920,
      "Ġack": 3921,
      "Ġaim": 3922,
      "Ġape": 3923,
      "Ġamend": 3924,
      "Ġaches": 3925,
      "Ġache": 3926,
      "Ġalder": 3927,
      "Ġacquaint": 3928,
      "Ġaccess": 3929,
      "Ġaugment": 3930,
      "Ġaxe": 3931,
      "Ġsor": 3932,
      "Ġsid": 3933,
      "Ġsack": 3934,
      "Ġsqu": 3935,
      "Ġsale": 3936,
      "Ġsav": 3937,
      "Ġship": 3938,
      "Ġsaf": 3939,
      "Ġsix": 3940,
      "Ġsouth": 3941,
      "Ġsallow": 3942,
      "Ġsitting": 3943,
      "Ġmat": 3944,
      "Ġmid": 3945,
      "Ġmour": 3946,
      "Ġmone": 3947,
      "Ġmant": 3948,
      "Ġmil": 3949,
      "Ġmast": 3950,
      "Ġmam": 3951,
      "Ġmand": 3952,
      "Ġmire": 3953,
      "Ġmaw": 3954,
      "Ġmile": 3955,
      "Ġmock": 3956,
      "Ġmass": 3957,
      "Ġmickle": 3958,
      "Ġmix": 3959,
      "Ġmount": 3960,
      "Ġmixt": 3961,
      "Ġmoans": 3962,
      "Ġwre": 3963,
      "Ġwon": 3964,
      "Ġwot": 3965,
      "Ġwing": 3966,
      "Ġwood": 3967,
      "Ġwil": 3968,
      "Ġwine": 3969,
      "Ġwand": 3970,
      "Ġwave": 3971,
      "Ġward": 3972,
      "Ġwither": 3973,
      "Ġwick": 3974,
      "Ġwary": 3975,
      "Ġwail": 3976,
      "Ġwadd": 3977,
      "Ġwield": 3978,
      "Ġwailing": 3979,
      "Ġwrench": 3980,
      "Ġwidow": 3981,
      "ino": 3982,
      "ines": 3983,
      "inea": 3984,
      "inant": 3985,
      "inite": 3986,
      "inco": 3987,
      "hand": 3988,
      "haps": 3989,
      "hales": 3990,
      "half": 3991,
      "hapen": 3992,
      "haeth": 3993,
      "haved": 3994,
      "hamed": 3995,
      "happy": 3996,
      "harged": 3997,
      "hasar": 3998,
      "rend": 3999,
      "reve": 4000,
      "reet": 4001,
      "rees": 4002,
      "reth": 4003,
      "reate": 4004,
      "rence": 4005,
      "reign": 4006,
      "repare": 4007,
      "reason": 4008,
      "Ġbon": 4009,
      "Ġbar": 4010,
      "Ġbout": 4011,
      "Ġball": 4012,
      "Ġbap": 4013,
      "Ġbau": 4014,
      "Ġbide": 4015,
      "Ġbale": 4016,
      "Ġbower": 4017,
      "Ġbakes": 4018,
      "Ġbought": 4019,
      "Ġbounty": 4020,
      "Ġbac": 4021,
      "Ġbuck": 4022,
      "Ġbump": 4023,
      "Ġbatt": 4024,
      "Ġbills": 4025,
      "Ġbrace": 4026,
      "Ġboot": 4027,
      "Ġbating": 4028,
      "Ġbait": 4029,
      "Ġbaked": 4030,
      "Ġbabe": 4031,
      "Ġtheme": 4032,
      "ndor": 4033,
      "ndraw": 4034,
      "isk": 4035,
      "isite": 4036,
      "isper": 4037,
      "ishes": 4038,
      "ispl": 4039,
      "isping": 4040,
      "lled": 4041,
      "llous": 4042,
      "Ġfet": 4043,
      "Ġfay": 4044,
      "Ġfur": 4045,
      "Ġfart": 4046,
      "Ġfil": 4047,
      "Ġfate": 4048,
      "Ġfeet": 4049,
      "Ġfears": 4050,
      "Ġfurn": 4051,
      "Ġfem": 4052,
      "Ġfig": 4053,
      "Ġfade": 4054,
      "Ġfume": 4055,
      "Ġfount": 4056,
      "Ġfidd": 4057,
      "erce": 4058,
      "erly": 4059,
      "erage": 4060,
      "erity": 4061,
      "ernight": 4062,
      "erhaps": 4063,
      "Ġlar": 4064,
      "Ġlow": 4065,
      "Ġlur": 4066,
      "Ġles": 4067,
      "Ġlath": 4068,
      "Ġlame": 4069,
      "Ġlure": 4070,
      "Ġlack": 4071,
      "Ġlap": 4072,
      "Ġloud": 4073,
      "Ġlace": 4074,
      "Ġloose": 4075,
      "Ġlist": 4076,
      "Ġlash": 4077,
      "Ġlinea": 4078,
      "Ġlisping": 4079,
      "iter": 4080,
      "itor": 4081,
      "itan": 4082,
      "ites": 4083,
      "itra": 4084,
      "itless": 4085,
      "itcher": 4086,
      "itched": 4087,
      "itchen": 4088,
      "Ġdow": 4089,
      "Ġdir": 4090,
      "Ġdine": 4091,
      "Ġdrave": 4092,
      "Ġdig": 4093,
      "Ġdaint": 4094,
      "Ġdied": 4095,
      "Ġdust": 4096,
      "Ġdial": 4097,
      "Ġdrows": 4098,
      "Ġdrown": 4099,
      "Ġdined": 4100,
      "Ġdivers": 4101,
      "Ġdash": 4102,
      "Ġdoting": 4103,
      "Ġdates": 4104,
      "Ġdedic": 4105,
      "Ġdashing": 4106,
      "ora": 4107,
      "orat": 4108,
      "orri": 4109,
      "orge": 4110,
      "orter": 4111,
      "orance": 4112,
      "orable": 4113,
      "orious": 4114,
      "orred": 4115,
      "orged": 4116,
      "orced": 4117,
      "Ġthie": 4118,
      "Ġthorn": 4119,
      "Ġthro": 4120,
      "Ġthigh": 4121,
      "Ġthrown": 4122,
      "Ġthread": 4123,
      "Ġthird": 4124,
      "Ġthwart": 4125,
      "Ġnar": 4126,
      "Ġnour": 4127,
      "Ġnap": 4128,
      "Ġnick": 4129,
      "Ġnaught": 4130,
      "Ġnun": 4131,
      "Ġnumb": 4132,
      "Ġnuts": 4133,
      "Ġnets": 4134,
      "Ġnaked": 4135,
      "Ġnipp": 4136,
      "Ġchat": 4137,
      "Ġcot": 4138,
      "Ġcent": 4139,
      "Ġcord": 4140,
      "Ġcap": 4141,
      "Ġcage": 4142,
      "Ġcost": 4143,
      "Ġcop": 4144,
      "Ġcull": 4145,
      "Ġcakes": 4146,
      "Ġcrows": 4147,
      "Ġcrown": 4148,
      "Ġcert": 4149,
      "Ġcustom": 4150,
      "Ġcoward": 4151,
      "Ġcreature": 4152,
      "Ġcait": 4153,
      "Ġcaeter": 4154,
      "Ġcreate": 4155,
      "arm": 4156,
      "aries": 4157,
      "arish": 4158,
      "arage": 4159,
      "arrel": 4160,
      "aria": 4161,
      "arated": 4162,
      "ariable": 4163,
      "vel": 4164,
      "vey": 4165,
      "velling": 4166,
      "verest": 4167,
      "vellous": 4168,
      "met": 4169,
      "meats": 4170,
      "metic": 4171,
      "ĠTart": 4172,
      "ĠTime": 4173,
      "ĠTies": 4174,
      "ĠTick": 4175,
      "ĠTalk": 4176,
      "ĠTemper": 4177,
      "ĠTrust": 4178,
      "ĠTickle": 4179,
      "ĠTiber": 4180,
      "ĠTrans": 4181,
      "ĠTitan": 4182,
      "Ġtop": 4183,
      "Ġtoy": 4184,
      "Ġtoes": 4185,
      "Ġtower": 4186,
      "sen": 4187,
      "seen": 4188,
      "seeing": 4189,
      "Ġheat": 4190,
      "Ġheare": 4191,
      "Ġheap": 4192,
      "ots": 4193,
      "othes": 4194,
      "oteth": 4195,
      "otche": 4196,
      "Ġhur": 4197,
      "Ġhill": 4198,
      "Ġhind": 4199,
      "Ġhook": 4200,
      "Ġhunt": 4201,
      "Ġhurd": 4202,
      "Ġhumb": 4203,
      "Ġhills": 4204,
      "Ġhymn": 4205,
      "Ġhorri": 4206,
      "ank": 4207,
      "anous": 4208,
      "anate": 4209,
      "angled": 4210,
      "Ġpin": 4211,
      "Ġpome": 4212,
      "Ġpent": 4213,
      "Ġpear": 4214,
      "Ġpru": 4215,
      "Ġpant": 4216,
      "Ġpout": 4217,
      "Ġpep": 4218,
      "Ġpie": 4219,
      "Ġpate": 4220,
      "Ġphy": 4221,
      "Ġpink": 4222,
      "Ġpunt": 4223,
      "Ġpoul": 4224,
      "Ġpars": 4225,
      "Ġpier": 4226,
      "Ġpup": 4227,
      "Ġpush": 4228,
      "Ġpip": 4229,
      "Ġpuff": 4230,
      "Ġpined": 4231,
      "Ġpitch": 4232,
      "Ġpainted": 4233,
      "Ġpitiful": 4234,
      "Ġphra": 4235,
      "Ġpierc": 4236,
      "Ġpitcher": 4237,
      "Ġporter": 4238,
      "Ġpots": 4239,
      "Ġoper": 4240,
      "Ġobs": 4241,
      "Ġomit": 4242,
      "Ġobey": 4243,
      "Ġosier": 4244,
      "Ġyell": 4245,
      "Ġyard": 4246,
      "Ġyest": 4247,
      "Ġyoke": 4248,
      "Ġyield": 4249,
      "ster": 4250,
      "state": 4251,
      "stity": 4252,
      "stable": 4253,
      "stool": 4254,
      "stuff": 4255,
      "stors": 4256,
      "ĠAur": 4257,
      "ĠAnt": 4258,
      "ĠAth": 4259,
      "ĠAfore": 4260,
      "ĠApp": 4261,
      "ĠAdd": 4262,
      "ĠAcc": 4263,
      "ĠAff": 4264,
      "ĠAgainst": 4265,
      "ĠAcquaint": 4266,
      "ĠApri": 4267,
      "Ġgle": 4268,
      "Ġgri": 4269,
      "Ġgid": 4270,
      "Ġgore": 4271,
      "Ġgent": 4272,
      "Ġgame": 4273,
      "Ġgate": 4274,
      "Ġgap": 4275,
      "Ġgown": 4276,
      "Ġgun": 4277,
      "Ġgory": 4278,
      "Ġgadd": 4279,
      "Ġgnat": 4280,
      "Ġgyves": 4281,
      "Ġgorge": 4282,
      "Ġgarish": 4283,
      "inging": 4284,
      "ingly": 4285,
      "Ġbell": 4286,
      "Ġbeet": 4287,
      "Ġbent": 4288,
      "Ġbeard": 4289,
      "Ġbede": 4290,
      "Ġbene": 4291,
      "Ġbehest": 4292,
      "Ġbehavior": 4293,
      "Ġbells": 4294,
      "Ġbefits": 4295,
      "Ġbench": 4296,
      "Ġbepaint": 4297,
      "Ġbescre": 4298,
      "Ġbehalf": 4299,
      "Ġyounge": 4300,
      "ens": 4301,
      "eny": 4302,
      "Ġoffe": 4303,
      "ety": 4304,
      "etru": 4305,
      "etite": 4306,
      "etition": 4307,
      "ata": 4308,
      "ator": 4309,
      "atri": 4310,
      "atom": 4311,
      "atra": 4312,
      "ature": 4313,
      "atry": 4314,
      "atage": 4315,
      "atient": 4316,
      "athes": 4317,
      "atling": 4318,
      "atience": 4319,
      "atue": 4320,
      "ĠRest": 4321,
      "ĠRather": 4322,
      "ĠRem": 4323,
      "ĠRun": 4324,
      "ĠRidd": 4325,
      "ĠRaise": 4326,
      "Ġink": 4327,
      "Ġinch": 4328,
      "Ġinfect": 4329,
      "Ġinstant": 4330,
      "Ġinex": 4331,
      "Ġinjured": 4332,
      "Ġinjuries": 4333,
      "Ġinaus": 4334,
      "Ġincor": 4335,
      "Ġindite": 4336,
      "Ġinund": 4337,
      "lex": 4338,
      "leful": 4339,
      "leop": 4340,
      "leaf": 4341,
      "lements": 4342,
      "ĠWive": 4343,
      "ĠWise": 4344,
      "ĠWhile": 4345,
      "ĠWert": 4346,
      "ĠWomen": 4347,
      "ĠWhipp": 4348,
      "ĠWarm": 4349,
      "Ġmew": 4350,
      "Ġmeas": 4351,
      "Ġmess": 4352,
      "Ġmeag": 4353,
      "Ġmedd": 4354,
      "Ġmeats": 4355,
      "Ġmelan": 4356,
      "Ġmemory": 4357,
      "ura": 4358,
      "url": 4359,
      "uring": 4360,
      "ghing": 4361,
      "ithmetic": 4362,
      "uteth": 4363,
      "uttish": 4364,
      "cho": 4365,
      "chie": 4366,
      "choly": 4367,
      "chpan": 4368,
      "cell": 4369,
      "ceal": 4370,
      "ceeding": 4371,
      "cestors": 4372,
      "ades": 4373,
      "adful": 4374,
      "adict": 4375,
      "advised": 4376,
      "Ġhag": 4377,
      "Ġhai": 4378,
      "Ġhaunt": 4379,
      "Ġhams": 4380,
      "Ġhaught": 4381,
      "ĠMe": 4382,
      "ĠMen": 4383,
      "ĠMove": 4384,
      "ĠMart": 4385,
      "ĠMaint": 4386,
      "ĠMakes": 4387,
      "ĠMass": 4388,
      "ĠMurd": 4389,
      "ĠMiss": 4390,
      "ĠMade": 4391,
      "ĠMaking": 4392,
      "ĠMist": 4393,
      "ĠMethinks": 4394,
      "ĠMuch": 4395,
      "ĠMaria": 4396,
      "ĠSin": 4397,
      "ĠSove": 4398,
      "ĠSim": 4399,
      "ĠSear": 4400,
      "ĠSound": 4401,
      "ĠSaid": 4402,
      "ĠSta": 4403,
      "ĠSings": 4404,
      "ĠSpare": 4405,
      "ĠSub": 4406,
      "ĠSailing": 4407,
      "ĠSitting": 4408,
      "ĠSnatch": 4409,
      "ĠSinging": 4410,
      "irm": 4411,
      "iring": 4412,
      "irrel": 4413,
      "Ġnotes": 4414,
      "Ġnoted": 4415,
      "Ġnotice": 4416,
      "Ġell": 4417,
      "Ġeight": 4418,
      "Ġemb": 4419,
      "Ġeag": 4420,
      "Ġeaster": 4421,
      "Ġeats": 4422,
      "Ġelf": 4423,
      "Ġeach": 4424,
      "Ġelo": 4425,
      "Ġeste": 4426,
      "Ġelder": 4427,
      "Ġebb": 4428,
      "Ġemper": 4429,
      "Ġestate": 4430,
      "ĠBra": 4431,
      "ĠBack": 4432,
      "ĠBalt": 4433,
      "ĠBond": 4434,
      "ĠBoy": 4435,
      "ĠBrief": 4436,
      "ĠBring": 4437,
      "ĠBanish": 4438,
      "ĠBetr": 4439,
      "ĠBrother": 4440,
      "ĠCour": 4441,
      "ĠCast": 4442,
      "ĠCry": 4443,
      "ĠCare": 4444,
      "ĠCond": 4445,
      "ĠCold": 4446,
      "ĠCop": 4447,
      "ĠCull": 4448,
      "ĠCons": 4449,
      "ĠCuts": 4450,
      "ĠClub": 4451,
      "ĠCynt": 4452,
      "ĠCatling": 4453,
      "ĠCleop": 4454,
      "ooping": 4455,
      "illing": 4456,
      "illanous": 4457,
      "ĠOld": 4458,
      "ĠOnce": 4459,
      "ĠObey": 4460,
      "ntage": 4461,
      "riot": 4462,
      "rich": 4463,
      "rike": 4464,
      "riving": 4465,
      "rived": 4466,
      "rives": 4467,
      "Ġforce": 4468,
      "Ġforms": 4469,
      "Ġfortnight": 4470,
      "oveful": 4471,
      "overed": 4472,
      "Ġstone": 4473,
      "Ġstage": 4474,
      "Ġstro": 4475,
      "Ġstale": 4476,
      "Ġstock": 4477,
      "Ġstark": 4478,
      "Ġstakes": 4479,
      "Ġstains": 4480,
      "Ġstud": 4481,
      "Ġsteed": 4482,
      "Ġstair": 4483,
      "Ġstuff": 4484,
      "Ġstatue": 4485,
      "ĠFain": 4486,
      "ĠFly": 4487,
      "ĠFive": 4488,
      "ĠFather": 4489,
      "ĠFree": 4490,
      "ĠFeel": 4491,
      "ĠFetch": 4492,
      "ĠFlies": 4493,
      "ĠFeather": 4494,
      "ĠFlower": 4495,
      "ĠFollow": 4496,
      "Ġlip": 4497,
      "Ġliver": 4498,
      "Ġliest": 4499,
      "Ġlimp": 4500,
      "Ġliars": 4501,
      "Ġliking": 4502,
      "ĠNone": 4503,
      "ĠNell": 4504,
      "ĠNUR": 4505,
      "ĠNeed": 4506,
      "Ġdeed": 4507,
      "Ġdeck": 4508,
      "Ġdepe": 4509,
      "Ġdefor": 4510,
      "Ġdeeds": 4511,
      "Ġdeceit": 4512,
      "Ġdecre": 4513,
      "Ġdecease": 4514,
      "Ġdecree": 4515,
      "Ġdemand": 4516,
      "Ġdexter": 4517,
      "Ġump": 4518,
      "ĠJove": 4519,
      "ĠJame": 4520,
      "Ġits": 4521,
      "Ġitch": 4522,
      "ĠLight": 4523,
      "ĠLife": 4524,
      "ĠLiv": 4525,
      "ĠLift": 4526,
      "ĠLead": 4527,
      "kest": 4528,
      "keep": 4529,
      "als": 4530,
      "aly": 4531,
      "alities": 4532,
      "ided": 4533,
      "idity": 4534,
      "ideth": 4535,
      "idering": 4536,
      "Ġweb": 4537,
      "Ġwean": 4538,
      "Ġweal": 4539,
      "Ġweigh": 4540,
      "Ġweary": 4541,
      "Ġweakest": 4542,
      "omies": 4543,
      "oury": 4544,
      "ourge": 4545,
      "ourishes": 4546,
      "ĠHo": 4547,
      "ĠHood": 4548,
      "ĠHear": 4549,
      "ĠHea": 4550,
      "ĠHunt": 4551,
      "ĠHist": 4552,
      "ĠHeart": 4553,
      "ĠHugh": 4554,
      "ĠPart": 4555,
      "ĠPho": 4556,
      "ĠPink": 4557,
      "ĠPerc": 4558,
      "ĠPale": 4559,
      "ĠPiteous": 4560,
      "ĠPursu": 4561,
      "ĠPitiful": 4562,
      "ĠPetr": 4563,
      "ĠPeer": 4564,
      "ĠPhaeth": 4565,
      "ĠPrepare": 4566,
      "ĠPerhaps": 4567,
      "ĠPetru": 4568,
      "ĠPatience": 4569,
      "ĠEart": 4570,
      "ĠEvery": 4571,
      "ĠEaster": 4572,
      "ĠEach": 4573,
      "ĠEthi": 4574,
      "ĠEyes": 4575,
      "ĠEcho": 4576,
      "ained": 4577,
      "Ġsore": 4578,
      "Ġsoles": 4579,
      "Ġsober": 4580,
      "Ġsoonest": 4581,
      "Ġsoci": 4582,
      "Ġsociet": 4583,
      "Ġsolace": 4584,
      "Ġherring": 4585,
      "ulty": 4586,
      "cking": 4587,
      "cket": 4588,
      "ckle": 4589,
      "cked": 4590,
      "ursed": 4591,
      "Ġassemb": 4592,
      "Ġaspired": 4593,
      "Ġasunder": 4594,
      "Ġashamed": 4595,
      "herit": 4596,
      "herous": 4597,
      "Ġwills": 4598,
      "Ġwillingly": 4599,
      "Ġfamine": 4600,
      "Ġfamil": 4601,
      "Ġfashi": 4602,
      "ĠThee": 4603,
      "ĠTheir": 4604,
      "verb": 4605,
      "vert": 4606,
      "veril": 4607,
      "Ġshake": 4608,
      "Ġshaft": 4609,
      "Ġshady": 4610,
      "Ġshank": 4611,
      "Ġsharps": 4612,
      "asy": 4613,
      "asing": 4614,
      "asant": 4615,
      "asps": 4616,
      "ashed": 4617,
      "entous": 4618,
      "entine": 4619,
      "entious": 4620,
      "Ġkin": 4621,
      "Ġking": 4622,
      "Ġkings": 4623,
      "Ġkitchen": 4624,
      "Ġanguish": 4625,
      "Ġangry": 4626,
      "Ġanatom": 4627,
      "Ġancestors": 4628,
      "Ġhiss": 4629,
      "Ġhist": 4630,
      "rand": 4631,
      "raid": 4632,
      "raise": 4633,
      "ract": 4634,
      "rape": 4635,
      "raught": 4636,
      "rakes": 4637,
      "raze": 4638,
      "ĠThrow": 4639,
      "ĠThink": 4640,
      "ĠThrows": 4641,
      "ĠGall": 4642,
      "ĠGro": 4643,
      "ĠGrind": 4644,
      "ĠGuest": 4645,
      "ĠGorged": 4646,
      "ĠGraze": 4647,
      "eard": 4648,
      "hia": 4649,
      "hiest": 4650,
      "hified": 4651,
      "athy": 4652,
      "each": 4653,
      "eakest": 4654,
      "Ġsheet": 4655,
      "Ġsheath": 4656,
      "Ġshelves": 4657,
      "Ġbutcher": 4658,
      "arter": 4659,
      "run": 4660,
      "rung": 4661,
      "rums": 4662,
      "ruised": 4663,
      "runk": 4664,
      "rusion": 4665,
      "iff": 4666,
      "ifter": 4667,
      "ifici": 4668,
      "ified": 4669,
      "Ġrear": 4670,
      "Ġrequ": 4671,
      "Ġrede": 4672,
      "Ġreek": 4673,
      "Ġrevers": 4674,
      "Ġreach": 4675,
      "Ġrevol": 4676,
      "Ġrecl": 4677,
      "Ġrecon": 4678,
      "Ġrevenge": 4679,
      "Ġregion": 4680,
      "Ġrenown": 4681,
      "Ġreverse": 4682,
      "Ġreels": 4683,
      "Ġredress": 4684,
      "Ġrelig": 4685,
      "Ġshin": 4686,
      "Ġshore": 4687,
      "Ġshower": 4688,
      "Ġshun": 4689,
      "Ġshining": 4690,
      "Ġshrine": 4691,
      "Ġshirt": 4692,
      "Ġshoem": 4693,
      "Ġshrunk": 4694,
      "Ġsunder": 4695,
      "Ġsuff": 4696,
      "Ġsuspect": 4697,
      "Ġdoing": 4698,
      "Ġdoct": 4699,
      "Ġdoff": 4700,
      "Ġdozen": 4701,
      "Ġdoleful": 4702,
      "ording": 4703,
      "Ġnoon": 4704,
      "Ġnoses": 4705,
      "Ġnobly": 4706,
      "geon": 4707,
      "gelic": 4708,
      "Ġally": 4709,
      "Ġallow": 4710,
      "Ġallig": 4711,
      "Ġalliance": 4712,
      "Ġmanes": 4713,
      "Ġmanly": 4714,
      "Ġmangle": 4715,
      "Ġneither": 4716,
      "Ġnecess": 4717,
      "Ġnegle": 4718,
      "Ġnephe": 4719,
      "Ġsees": 4720,
      "Ġsemb": 4721,
      "Ġseiz": 4722,
      "Ġseason": 4723,
      "Ġseeds": 4724,
      "Ġseverest": 4725,
      "Ġfrost": 4726,
      "Ġfrozen": 4727,
      "Ġfrank": 4728,
      "Ġpry": 4729,
      "Ġprost": 4730,
      "Ġprating": 4731,
      "Ġprinco": 4732,
      "Ġmumb": 4733,
      "Ġcomest": 4734,
      "ĠWhate": 4735,
      "Ġvast": 4736,
      "Ġvows": 4737,
      "Ġvanish": 4738,
      "Ġvict": 4739,
      "Ġvariable": 4740,
      "Ġvillanous": 4741,
      "ĠToget": 4742,
      "Ġspit": 4743,
      "Ġsped": 4744,
      "Ġspell": 4745,
      "Ġspilt": 4746,
      "Ġspice": 4747,
      "Ġspark": 4748,
      "Ġsparing": 4749,
      "Ġsphere": 4750,
      "Ġspread": 4751,
      "Ġspec": 4752,
      "Ġspited": 4753,
      "Ġspits": 4754,
      "Ġspeech": 4755,
      "Ġspoken": 4756,
      "Ġsprung": 4757,
      "hopp": 4758,
      "term": 4759,
      "hance": 4760,
      "hankful": 4761,
      "Ġnights": 4762,
      "Ġwheels": 4763,
      "Ġswan": 4764,
      "Ġsway": 4765,
      "Ġswound": 4766,
      "Ġswears": 4767,
      "Ġswitch": 4768,
      "Ġswallow": 4769,
      "Ġswashing": 4770,
      "Ġswung": 4771,
      "Ġswifter": 4772,
      "Ġgoeth": 4773,
      "Ġgovern": 4774,
      "urer": 4775,
      "Ġhated": 4776,
      "Ġhatred": 4777,
      "Ġarrow": 4778,
      "Ġargu": 4779,
      "Ġarise": 4780,
      "Ġarms": 4781,
      "Ġargues": 4782,
      "Ġarmed": 4783,
      "Ġarbit": 4784,
      "Ġarithmetic": 4785,
      "Ġarrives": 4786,
      "Ġatta": 4787,
      "Ġattempt": 4788,
      "Ġattires": 4789,
      "Ġatomies": 4790,
      "Ġthereof": 4791,
      "Ġtherewit": 4792,
      "ĠEnters": 4793,
      "eping": 4794,
      "epart": 4795,
      "Ġheretic": 4796,
      "Ġknit": 4797,
      "Ġknot": 4798,
      "astic": 4799,
      "ĠDay": 4800,
      "ĠDove": 4801,
      "ĠDel": 4802,
      "ĠDire": 4803,
      "ĠDown": 4804,
      "ĠDig": 4805,
      "ĠDian": 4806,
      "ĠDoting": 4807,
      "ĠDrinks": 4808,
      "ĠDispl": 4809,
      "ĠDeny": 4810,
      "ĠDriving": 4811,
      "ĠDrums": 4812,
      "ĠDepart": 4813,
      "amp": 4814,
      "amer": 4815,
      "amity": 4816,
      "ushing": 4817,
      "uscad": 4818,
      "Ġamerce": 4819,
      "Ġcanop": 4820,
      "Ġcannon": 4821,
      "Ġcancell": 4822,
      "Ġgoodly": 4823,
      "Ġgoodman": 4824,
      "Ġgoodfell": 4825,
      "ths": 4826,
      "thou": 4827,
      "though": 4828,
      "thread": 4829,
      "Ġsaying": 4830,
      "quer": 4831,
      "quet": 4832,
      "quake": 4833,
      "quence": 4834,
      "quering": 4835,
      "quean": 4836,
      "quisite": 4837,
      "Ġrood": 4838,
      "Ġrind": 4839,
      "Ġround": 4840,
      "Ġrod": 4841,
      "Ġrise": 4842,
      "Ġrop": 4843,
      "Ġrains": 4844,
      "Ġratt": 4845,
      "Ġrote": 4846,
      "Ġrott": 4847,
      "Ġrash": 4848,
      "Ġrocks": 4849,
      "Ġrites": 4850,
      "selme": 4851,
      "selves": 4852,
      "ĠForget": 4853,
      "ĠForgive": 4854,
      "ĠForbid": 4855,
      "alty": 4856,
      "guage": 4857,
      "guised": 4858,
      "guiled": 4859,
      "Ġlets": 4860,
      "Ġletting": 4861,
      "icine": 4862,
      "odig": 4863,
      "Ġhole": 4864,
      "Ġhoars": 4865,
      "Ġourselves": 4866,
      "Ġblame": 4867,
      "Ġbliss": 4868,
      "Ġblaz": 4869,
      "Ġblister": 4870,
      "Ġblaze": 4871,
      "Ġbladd": 4872,
      "Ġblubbering": 4873,
      "Ġblades": 4874,
      "Ġblushing": 4875,
      "orts": 4876,
      "ortun": 4877,
      "orthiest": 4878,
      "Ġtool": 4879,
      "atest": 4880,
      "aps": 4881,
      "appare": 4882,
      "appl": 4883,
      "Ġmarr": 4884,
      "Ġmargent": 4885,
      "Ġmarvellous": 4886,
      "Ġmarchpan": 4887,
      "Ġconta": 4888,
      "Ġconven": 4889,
      "Ġconcl": 4890,
      "Ġconceive": 4891,
      "Ġconjur": 4892,
      "Ġconsequ": 4893,
      "Ġconceit": 4894,
      "Ġconstr": 4895,
      "Ġconvoy": 4896,
      "Ġconvey": 4897,
      "Ġconstable": 4898,
      "Ġconceal": 4899,
      "Ġconvert": 4900,
      "Ġconquer": 4901,
      "ĠTybalts": 4902,
      "Ġjaw": 4903,
      "Ġjew": 4904,
      "ĠYe": 4905,
      "ĠYon": 4906,
      "Ġorb": 4907,
      "Ġorison": 4908,
      "aub": 4909,
      "Ġoutcry": 4910,
      "Ġartifici": 4911,
      "pper": 4912,
      "pping": 4913,
      "Ġladyship": 4914,
      "Ġladybird": 4915,
      "Ġtheirs": 4916,
      "few": 4917,
      "feather": 4918,
      "femin": 4919,
      "Ġmadly": 4920,
      "Ġmadmen": 4921,
      "Ġmadness": 4922,
      "mann": 4923,
      "Ġpox": 4924,
      "Ġpoper": 4925,
      "Ġpoised": 4926,
      "bleeding": 4927,
      "Ġworst": 4928,
      "Ġworth": 4929,
      "Ġworthy": 4930,
      "Ġdisper": 4931,
      "Ġdistre": 4932,
      "Ġdislike": 4933,
      "Ġdismember": 4934,
      "Ġdissemb": 4935,
      "Ġdisgrace": 4936,
      "Ġdisguised": 4937,
      "Ġquit": 4938,
      "Ġquince": 4939,
      "Ġquiver": 4940,
      "Ġquivers": 4941,
      "Ġquote": 4942,
      "Ġqualities": 4943,
      "Ġquarter": 4944,
      "Ġalive": 4945,
      "Ġalthough": 4946,
      "Ġslack": 4947,
      "Ġslop": 4948,
      "Ġslip": 4949,
      "Ġslug": 4950,
      "Ġsluttish": 4951,
      "inkle": 4952,
      "ĠMyself": 4953,
      "Ġtimeless": 4954,
      "Ġagate": 4955,
      "Ġagile": 4956,
      "Ġagree": 4957,
      "Ġagrees": 4958,
      "Ġhasty": 4959,
      "Ġhasten": 4960,
      "Ġhastes": 4961,
      "Ġunatt": 4962,
      "Ġunivers": 4963,
      "Ġunmade": 4964,
      "Ġunrest": 4965,
      "Ġunnat": 4966,
      "Ġunple": 4967,
      "Ġunstain": 4968,
      "Ġuncover": 4969,
      "Ġunworthy": 4970,
      "Ġunruly": 4971,
      "Ġunreason": 4972,
      "Ġunseen": 4973,
      "Ġunstuff": 4974,
      "Ġunadvised": 4975,
      "Ġunmann": 4976,
      "Ġloins": 4977,
      "Ġlolling": 4978,
      "Ġlogger": 4979,
      "ishment": 4980,
      "Ġmusty": 4981,
      "ageous": 4982,
      "Ġprest": 4983,
      "Ġpredom": 4984,
      "Ġprevail": 4985,
      "Ġpredic": 4986,
      "Ġprefix": 4987,
      "cting": 4988,
      "ctise": 4989,
      "Ġtruce": 4990,
      "Ġtrump": 4991,
      "Ġtrunk": 4992,
      "Ġtruckle": 4993,
      "Ġabound": 4994,
      "Ġabuse": 4995,
      "Ġabbey": 4996,
      "Ġaboard": 4997,
      "Ġabsol": 4998,
      "Ġlooking": 4999,
      "Ġlooked": 5000,
      "Ġplant": 5001,
      "Ġplate": 5002,
      "Ġplaint": 5003,
      "Ġplats": 5004,
      "Ġplants": 5005,
      "ĠComes": 5006,
      "Ġlikely": 5007,
      "ĠThisbe": 5008,
      "Ġsweeter": 5009,
      "Ġsweeting": 5010,
      "Ġsweeten": 5011,
      "Ġsweetly": 5012,
      "Ġsweetmeats": 5013,
      "erving": 5014,
      "Ġlightly": 5015,
      "Ġlightness": 5016,
      "Ġlightens": 5017,
      "Ġenpier": 5018,
      "Ġenforce": 5019,
      "Ġenamour": 5020,
      "Ġengross": 5021,
      "Ġensign": 5022,
      "Ġenrich": 5023,
      "Ġhousewife": 5024,
      "psy": 5025,
      "Ġbrine": 5026,
      "Ġbrought": 5027,
      "Ġbrisk": 5028,
      "Ġbred": 5029,
      "Ġbread": 5030,
      "Ġbreac": 5031,
      "Ġbreathe": 5032,
      "Ġbreathes": 5033,
      "Ġheartless": 5034,
      "ĠAscend": 5035,
      "athers": 5036,
      "urned": 5037,
      "urnished": 5038,
      "Ġlived": 5039,
      "Ġlivest": 5040,
      "Ġlively": 5041,
      "Ġwherein": 5042,
      "Ġwhereon": 5043,
      "dead": 5044,
      "death": 5045,
      "devour": 5046,
      "Ġtwist": 5047,
      "Ġtwinkle": 5048,
      "Ġmista": 5049,
      "Ġmisty": 5050,
      "Ġmisbe": 5051,
      "Ġmischan": 5052,
      "Ġmisgive": 5053,
      "Ġmischie": 5054,
      "Ġmisappl": 5055,
      "Ġwhoe": 5056,
      "ĠInherit": 5057,
      "ĠItaly": 5058,
      "Ġexpect": 5059,
      "Ġexec": 5060,
      "Ġexhales": 5061,
      "Ġexquisite": 5062,
      "Ġcouch": 5063,
      "Ġcouple": 5064,
      "Ġcoughing": 5065,
      "Ġcalling": 5066,
      "Ġheavenly": 5067,
      "eming": 5068,
      "osite": 5069,
      "Ġwolvish": 5070,
      "Ġbacks": 5071,
      "Ġnamed": 5072,
      "Ġclout": 5073,
      "Ġclock": 5074,
      "Ġcloak": 5075,
      "Ġclothes": 5076,
      "Ġclasps": 5077,
      "Ġclaps": 5078,
      "Ġusurer": 5079,
      "ĠWhereto": 5080,
      "away": 5081,
      "Ġparting": 5082,
      "Ġparted": 5083,
      "Ġpartly": 5084,
      "Ġparties": 5085,
      "ĠSoon": 5086,
      "ĠSole": 5087,
      "ĠSojour": 5088,
      "ĠBeats": 5089,
      "ĠBeguiled": 5090,
      "Ġrust": 5091,
      "Ġrung": 5092,
      "Ġrush": 5093,
      "Ġflood": 5094,
      "Ġflag": 5095,
      "Ġflint": 5096,
      "Ġflask": 5097,
      "Ġflirt": 5098,
      "Ġflourishes": 5099,
      "ravening": 5100,
      "ney": 5101,
      "neven": 5102,
      "pered": 5103,
      "perer": 5104,
      "pery": 5105,
      "perch": 5106,
      "perfor": 5107,
      "perience": 5108,
      "ĠUtter": 5109,
      "ĠUndraw": 5110,
      "ĠUneven": 5111,
      "Ġawaking": 5112,
      "Ġmenace": 5113,
      "Ġfoes": 5114,
      "Ġfolks": 5115,
      "ĠServants": 5116,
      "ĠVI": 5117,
      "ĠVile": 5118,
      "ĠVillain": 5119,
      "ĠVirtu": 5120,
      "ĠVitra": 5121,
      "Ġolder": 5122,
      "ĠHowlings": 5123,
      "ĠGoing": 5124,
      "Ġscore": 5125,
      "Ġscant": 5126,
      "Ġscare": 5127,
      "Ġscale": 5128,
      "Ġscars": 5129,
      "Ġscatter": 5130,
      "Ġscope": 5131,
      "Ġscathe": 5132,
      "Ġscourge": 5133,
      "Ġscrape": 5134,
      "Ġchid": 5135,
      "Ġchinks": 5136,
      "Ġchurl": 5137,
      "Ġchain": 5138,
      "Ġchase": 5139,
      "Ġchaos": 5140,
      "Ġchaste": 5141,
      "Ġchapless": 5142,
      "Ġchastity": 5143,
      "Ġchariot": 5144,
      "Ġhencefor": 5145,
      "Ġstream": 5146,
      "iced": 5147,
      "Ġfinding": 5148,
      "ansgression": 5149,
      "ĠAny": 5150,
      "ĠAnswer": 5151,
      "ĠAncient": 5152,
      "ĠAngelic": 5153,
      "ĠAnselme": 5154,
      "ĠWeeping": 5155,
      "Ġlief": 5156,
      "Ġliege": 5157,
      "Ġkept": 5158,
      "Ġkeys": 5159,
      "Ġwring": 5160,
      "Ġdress": 5161,
      "Ġdreadful": 5162,
      "Ġthinking": 5163,
      "Ġbedaub": 5164,
      "trees": 5165,
      "tress": 5166,
      "treading": 5167,
      "Ġafire": 5168,
      "Ġaffect": 5169,
      "Ġafraid": 5170,
      "Ġafeard": 5171,
      "Ġbankrupt": 5172,
      "Ġbanquet": 5173,
      "Ġfearfully": 5174,
      "Ġchief": 5175,
      "Ġgreatest": 5176,
      "olour": 5177,
      "ology": 5178,
      "olatry": 5179,
      "Ġdescry": 5180,
      "Ġdescent": 5181,
      "Ġyounger": 5182,
      "lessly": 5183,
      "ĠSeek": 5184,
      "Ġearthen": 5185,
      "Ġkeepers": 5186,
      "Ġchildish": 5187,
      "Ġchildhood": 5188,
      "ased": 5189,
      "ople": 5190,
      "Ġrid": 5191,
      "Ġripe": 5192,
      "Ġridd": 5193,
      "Ġriband": 5194,
      "Ġripen": 5195,
      "Ġrigour": 5196,
      "Ġdownright": 5197,
      "Ġheadstr": 5198,
      "ĠMercy": 5199,
      "Ġearthquake": 5200,
      "Ġfriendly": 5201,
      "ages": 5202,
      "agined": 5203,
      "Ġleast": 5204,
      "Ġleaps": 5205,
      "Ġleaving": 5206,
      "ĠStuff": 5207,
      "ĠStran": 5208,
      "ĠStraining": 5209,
      "ĠStrike": 5210,
      "ĠShame": 5211,
      "ĠShake": 5212,
      "ĠShalt": 5213,
      "ĠSharp": 5214,
      "Ġneedly": 5215,
      "Ġneedful": 5216,
      "Ġprinces": 5217,
      "Ġeyeless": 5218,
      "Ġdreamers": 5219,
      "swift": 5220,
      "Ġsounds": 5221,
      "Ġlean": 5222,
      "Ġleans": 5223,
      "Ġlevel": 5224,
      "Ġcheers": 5225,
      "Ġcheveril": 5226,
      "Ġbegone": 5227,
      "Ġbeautify": 5228,
      "ledge": 5229,
      "Ġfaithfully": 5230,
      "mpathy": 5231,
      "Ġmoves": 5232,
      "Ġmoveth": 5233,
      "Ġwhit": 5234,
      "Ġwhither": 5235,
      "Ġwhining": 5236,
      "Ġwhisper": 5237,
      "Ġwarning": 5238,
      "Ġwarns": 5239,
      "Ġbids": 5240,
      "Ġbetake": 5241,
      "Ġbetossed": 5242,
      "Ġinterest": 5243,
      "Ġintrusion": 5244,
      "ooming": 5245,
      "asshopp": 5246,
      "Ġsunset": 5247,
      "ccata": 5248,
      "iently": 5249,
      "Ġtrain": 5250,
      "Ġtrooping": 5251,
      "Ġtransgression": 5252,
      "Ġputting": 5253,
      "ĠRead": 5254,
      "ĠReady": 5255,
      "ĠRebe": 5256,
      "ĠRevol": 5257,
      "ĠReceive": 5258,
      "ĠRevive": 5259,
      "ĠReads": 5260,
      "ĠRebell": 5261,
      "ĠRemember": 5262,
      "Ġends": 5263,
      "Ġendart": 5264,
      "Ġrests": 5265,
      "Ġrestorat": 5266,
      "ĠDoing": 5267,
      "Ġrunn": 5268,
      "Ġruns": 5269,
      "Ġrunagate": 5270,
      "Ġrunaway": 5271,
      "fortable": 5272,
      "uned": 5273,
      "Ġtalked": 5274,
      "Ġsmock": 5275,
      "Ġsmatter": 5276,
      "Ġcoil": 5277,
      "Ġcoach": 5278,
      "Ġcocke": 5279,
      "Ġcoals": 5280,
      "ĠAlone": 5281,
      "ĠAlive": 5282,
      "ĠAlike": 5283,
      "Ġoffence": 5284,
      "Ġstrains": 5285,
      "Ġstratage": 5286,
      "ĠNoting": 5287,
      "Ġusest": 5288,
      "Ġuntaught": 5289,
      "Ġuntalk": 5290,
      "Ġuntangled": 5291,
      "Ġunthankful": 5292,
      "versity": 5293,
      "versary": 5294,
      "Ġgentlemanlike": 5295,
      "Ġbreaths": 5296,
      "avoury": 5297,
      "mson": 5298,
      "ptial": 5299,
      "Ġrail": 5300,
      "Ġraging": 5301,
      "Ġado": 5302,
      "Ġadjac": 5303,
      "Ġadmired": 5304,
      "Ġadvise": 5305,
      "Ġadversary": 5306,
      "Ġhappiness": 5307,
      "Ġhappily": 5308,
      "Ġsooner": 5309,
      "Ġhandsome": 5310,
      "form": 5311,
      "Ġsinners": 5312,
      "Ġsleeping": 5313,
      "Ġmasterless": 5314,
      "Ġbodes": 5315,
      "Ġbodies": 5316,
      "Ġcourts": 5317,
      "Ġcourtier": 5318,
      "Ġcourtiers": 5319,
      "Ġcourtship": 5320,
      "ĠLaura": 5321,
      "Ġsends": 5322,
      "Ġsending": 5323,
      "Ġconfounds": 5324,
      "Ġconfidence": 5325,
      "Ġconfines": 5326,
      "Ġcompass": 5327,
      "Ġcompounds": 5328,
      "upy": 5329,
      "Ġtread": 5330,
      "Ġtrees": 5331,
      "Ġtreasure": 5332,
      "Ġtreason": 5333,
      "Ġtreac": 5334,
      "Ġtresp": 5335,
      "Ġtreads": 5336,
      "Ġtongues": 5337,
      "Ġturning": 5338,
      "Ġserious": 5339,
      "Ġsets": 5340,
      "Ġsettled": 5341,
      "Ġwayward": 5342,
      "Ġlately": 5343,
      "Ġlawyers": 5344,
      "Ġdraws": 5345,
      "Ġdrawer": 5346,
      "Ġnorth": 5347,
      "Ġchanges": 5348,
      "Ġtombs": 5349,
      "Ġperil": 5350,
      "Ġperfection": 5351,
      "Ġperuse": 5352,
      "Ġperverse": 5353,
      "Ġperjured": 5354,
      "Ġperjuries": 5355,
      "Ġperdona": 5356,
      "Ġperjury": 5357,
      "Ġpernicious": 5358,
      "Ġperform": 5359,
      "Ġpassage": 5360,
      "Ġbearing": 5361,
      "Ġforgive": 5362,
      "ĠHero": 5363,
      "ĠHerself": 5364,
      "Ġdiscern": 5365,
      "Ġdischarged": 5366,
      "Ġdiscreet": 5367,
      "Ġdiscovered": 5368,
      "Ġdiscolour": 5369,
      "Ġcomforted": 5370,
      "Ġcomfortable": 5371,
      "ĠUncle": 5372,
      "ĠUnpl": 5373,
      "ĠUnseem": 5374,
      "ĠUnworthy": 5375,
      "ĠUncom": 5376,
      "ĠUnfold": 5377,
      "ĠUnwield": 5378,
      "ĠUnhappy": 5379,
      "Ġappears": 5380,
      "Ġappert": 5381,
      "Ġappetite": 5382,
      "Ġmonarch": 5383,
      "Ġmonster": 5384,
      "Ġburial": 5385,
      "Ġdared": 5386,
      "Ġdarest": 5387,
      "ĠThank": 5388,
      "seducing": 5389,
      "Ġhuge": 5390,
      "Ġprivy": 5391,
      "Ġgrove": 5392,
      "Ġgrasshopp": 5393,
      "Ġmeaning": 5394,
      "Ġremedies": 5395,
      "Ġprofan": 5396,
      "Ġprofess": 5397,
      "Ġprogress": 5398,
      "Ġproceeding": 5399,
      "Ġproverb": 5400,
      "Ġproperer": 5401,
      "Ġjocu": 5402,
      "Ġthankings": 5403,
      "Ġplaying": 5404,
      "Ġbringing": 5405,
      "Ġcloset": 5406,
      "Ġclosely": 5407,
      "Ġquarrels": 5408,
      "absol": 5409,
      "ffic": 5410,
      "parent": 5411,
      "ubstantial": 5412,
      "Ġvessel": 5413,
      "Ġsadly": 5414,
      "Ġminim": 5415,
      "Ġminion": 5416,
      "Ġminister": 5417,
      "Ġminds": 5418,
      "Ġminded": 5419,
      "Ġbounds": 5420,
      "Ġboundless": 5421,
      "Ġboys": 5422,
      "istant": 5423,
      "Ġthrills": 5424,
      "Ġhighway": 5425,
      "Ġhighmost": 5426,
      "Ġpleading": 5427,
      "Ġpleasant": 5428,
      "Ġpurge": 5429,
      "Ġpurcha": 5430,
      "Ġpurbl": 5431,
      "Ġpurgat": 5432,
      "Ġpardoning": 5433,
      "Ġevening": 5434,
      "Ġfortunes": 5435,
      "Ġdelicious": 5436,
      "ĠHolding": 5437,
      "Ġfares": 5438,
      "Ġkindly": 5439,
      "Ġvaulty": 5440,
      "holder": 5441,
      "Ġarmour": 5442,
      "Ġcontaining": 5443,
      "Ġcontract": 5444,
      "Ġflowering": 5445,
      "Ġgreater": 5446,
      "banishment": 5447,
      "udes": 5448,
      "Ġtried": 5449,
      "Ġtrick": 5450,
      "Ġtribut": 5451,
      "Ġtrifling": 5452,
      "ressing": 5453,
      "ressly": 5454,
      "Ġfighting": 5455,
      "Ġfired": 5456,
      "Ġfires": 5457,
      "Ġlearning": 5458,
      "Ġlasting": 5459,
      "Ġducats": 5460,
      "Ġdumps": 5461,
      "Ġhideous": 5462,
      "Ġglove": 5463,
      "Ġglide": 5464,
      "Ġglory": 5465,
      "Ġglorious": 5466,
      "Ġglooming": 5467,
      "Ġgracious": 5468,
      "Ġgravity": 5469,
      "ĠSpanish": 5470,
      "ĠSpread": 5471,
      "ĠSpakest": 5472,
      "ĠSpeakest": 5473,
      "Ġstirs": 5474,
      "Ġstirring": 5475,
      "Ġstirreth": 5476,
      "Ġdevout": 5477,
      "Ġasking": 5478,
      "Ġresort": 5479,
      "Ġresign": 5480,
      "Ġresidence": 5481,
      "Ġnobleman": 5482,
      "ĠDead": 5483,
      "Ġroe": 5484,
      "Ġroar": 5485,
      "Ġrogue": 5486,
      "Ġrooteth": 5487,
      "Ġropery": 5488,
      "Ġdispose": 5489,
      "Ġdispatch": 5490,
      "Ġdispute": 5491,
      "Ġdisparage": 5492,
      "Ġdispraise": 5493,
      "Ġdistance": 5494,
      "Ġdistraught": 5495,
      "Ġcloudy": 5496,
      "Ġflowed": 5497,
      "Ġflowered": 5498,
      "Ġfollowing": 5499,
      "Ġfollowers": 5500,
      "Ġwriting": 5501,
      "Ġwrites": 5502,
      "Ġserves": 5503,
      "acentio": 5504,
      "shine": 5505,
      "Ġsinger": 5506,
      "Ġsingleness": 5507,
      "Ġmerchant": 5508,
      "Ġmerchand": 5509,
      "Ġwantons": 5510,
      "Ġbooks": 5511,
      "Ġfeeling": 5512,
      "Ġlamentation": 5513,
      "Ġlamentations": 5514,
      "Ġdenied": 5515,
      "Ġdenote": 5516,
      "Ġdrum": 5517,
      "Ġdrudge": 5518,
      "Ġdarkness": 5519,
      "Ġpenury": 5520,
      "Ġpencil": 5521,
      "Ġpenalty": 5522,
      "Ġpastry": 5523,
      "Ġoppress": 5524,
      "Ġopposed": 5525,
      "Ġopposition": 5526,
      "Ġopportun": 5527,
      "Ġopposite": 5528,
      "ĠAlla": 5529,
      "Ġguide": 5530,
      "Ġbeseeming": 5531,
      "ĠShot": 5532,
      "ĠShut": 5533,
      "ĠShuts": 5534,
      "Ġundertake": 5535,
      "Ġreply": 5536,
      "Ġreport": 5537,
      "Ġrepose": 5538,
      "Ġreputation": 5539,
      "Ġrepliest": 5540,
      "Ġrepetition": 5541,
      "Ġshortly": 5542,
      "Ġstranger": 5543,
      "Ġstrangled": 5544,
      "Ġstrangers": 5545,
      "lical": 5546,
      "twill": 5547,
      "twould": 5548,
      "twixt": 5549,
      "twere": 5550,
      "ĠKing": 5551,
      "ĠKisses": 5552,
      "ĠKilling": 5553,
      "Ġaccents": 5554,
      "Ġaccustom": 5555,
      "Ġaccording": 5556,
      "Ġburns": 5557,
      "Ġburneth": 5558,
      "Ġlesser": 5559,
      "Ġdrier": 5560,
      "Ġdried": 5561,
      "Ġdriveth": 5562,
      "Ġdrizz": 5563,
      "Ġdrivelling": 5564,
      "Ġcareful": 5565,
      "Ġcarelessly": 5566,
      "Ġcoldly": 5567,
      "Ġhomely": 5568,
      "Ġpaly": 5569,
      "Ġoverset": 5570,
      "Ġoverwhel": 5571,
      "Ġoverheard": 5572,
      "ĠArms": 5573,
      "Ġgirls": 5574,
      "Ġbelow": 5575,
      "Ġbelong": 5576,
      "Ġbeloved": 5577,
      "Ġbelonging": 5578,
      "atisfied": 5579,
      "ĠRetain": 5580,
      "ĠReturn": 5581,
      "ĠRetiring": 5582,
      "ĠRetorts": 5583,
      "ĠBenedic": 5584,
      "Ġstrive": 5585,
      "Ġsolely": 5586,
      "Ġsubstantial": 5587,
      "Ġsubmission": 5588,
      "Ġsupple": 5589,
      "Ġproves": 5590,
      "ĠDrawn": 5591,
      "ĠDraws": 5592,
      "Ġrancour": 5593,
      "Ġconsume": 5594,
      "Ġconspires": 5595,
      "Ġconsidering": 5596,
      "Ġjests": 5597,
      "Ġbrotherhood": 5598,
      "Ġexiled": 5599,
      "Ġexcuses": 5600,
      "Ġexcused": 5601,
      "pecting": 5602,
      "Ġaffords": 5603,
      "Ġaffright": 5604,
      "Ġaffray": 5605,
      "Ġafflict": 5606,
      "ĠStaying": 5607,
      "Ġjointure": 5608,
      "Ġthroughout": 5609,
      "Ġhonesty": 5610,
      "Ġhonestly": 5611,
      "chers": 5612,
      "ground": 5613,
      "granate": 5614,
      "ways": 5615,
      "Ġenters": 5616,
      "Ġimpute": 5617,
      "Ġimpatient": 5618,
      "Ġimpeach": 5619,
      "Ġacts": 5620,
      "Ġacting": 5621,
      "Ġacted": 5622,
      "Ġaction": 5623,
      "Ġskill": 5624,
      "Ġskins": 5625,
      "Ġskains": 5626,
      "Ġskitless": 5627,
      "Ġsatisfaction": 5628,
      "Ġwooes": 5629,
      "Ġwounds": 5630,
      "Ġbowl": 5631,
      "isterous": 5632,
      "Ġfurthest": 5633,
      "Ġladder": 5634,
      "Ġlamp": 5635,
      "Ġlamps": 5636,
      "Ġdouble": 5637,
      "Ġdoubl": 5638,
      "Ġdanced": 5639,
      "Ġcutt": 5640,
      "Ġcutting": 5641,
      "Ġcried": 5642,
      "Ġcricket": 5643,
      "Ġcrimson": 5644,
      "Ġchop": 5645,
      "Ġchoking": 5646,
      "Ġcrystal": 5647,
      "ĠTurning": 5648,
      "Ġpowerful": 5649,
      "Ġgross": 5650,
      "ĠWash": 5651,
      "Ġhanging": 5652,
      "Ġhanged": 5653,
      "ĠSups": 5654,
      "ĠSupper": 5655,
      "ĠSwitch": 5656,
      "ĠSaints": 5657,
      "ĠChrist": 5658,
      "ĠCannot": 5659,
      "ĠCanker": 5660,
      "Ġdepth": 5661,
      "Ġdeprived": 5662,
      "ĠProud": 5663,
      "ĠProdig": 5664,
      "Ġretire": 5665,
      "Ġshrived": 5666,
      "Ġvalidity": 5667,
      "Ġvoices": 5668,
      "Ġattending": 5669,
      "Ġattended": 5670,
      "ĠDido": 5671,
      "Ġconsents": 5672,
      "Ġpoints": 5673,
      "Ġbreaks": 5674,
      "Ġcounts": 5675,
      "Ġcountry": 5676,
      "Ġmaidenhood": 5677,
      "Ġfriendship": 5678,
      "Ġbrightness": 5679,
      "Ġlearns": 5680,
      "clout": 5681,
      "coner": 5682,
      "changing": 5683,
      "Ġimmediately": 5684,
      "Ġimagined": 5685,
      "Ġterms": 5686,
      "Ġtortoise": 5687,
      "hens": 5688,
      "Ġsenses": 5689,
      "Ġsententious": 5690,
      "Ġsimples": 5691,
      "Ġsimpleness": 5692,
      "Ġmeteor": 5693,
      "Ġmodern": 5694,
      "Ġmoderately": 5695,
      "Ġmasks": 5696,
      "Ġmoonshine": 5697,
      "Ġwait": 5698,
      "Ġwaiting": 5699,
      "Ġwalking": 5700,
      "Ġbusy": 5701,
      "Ġbusied": 5702,
      "Ġbrawling": 5703,
      "Ġbriefly": 5704,
      "Ġfees": 5705,
      "Ġfeign": 5706,
      "Ġfeathers": 5707,
      "Ġforeign": 5708,
      "Ġforehead": 5709,
      "Ġforefather": 5710,
      "Ġforerun": 5711,
      "Ġlenten": 5712,
      "Ġdank": 5713,
      "Ġdamnation": 5714,
      "Ġdivision": 5715,
      "Ġdivorced": 5716,
      "Ġdivideth": 5717,
      "Ġcourageous": 5718,
      "Ġcrush": 5719,
      "Ġcondemned": 5720,
      "Ġgipsy": 5721,
      "Ġgavest": 5722,
      "Ġbeaten": 5723,
      "Ġhairs": 5724,
      "Ġemploy": 5725,
      "ĠBlind": 5726,
      "ĠBlack": 5727,
      "ĠBliss": 5728,
      "ĠBlister": 5729,
      "ĠBlubbering": 5730,
      "Ġforswear": 5731,
      "Ġdefence": 5732,
      "Ġdefiance": 5733,
      "Ġdeflow": 5734,
      "Ġsoften": 5735,
      "Ġsoftest": 5736,
      "Ġshuts": 5737,
      "Ġpromise": 5738,
      "Ġprompt": 5739,
      "Ġpromised": 5740,
      "Ġpromotion": 5741,
      "Ġprompter": 5742,
      "Ġprouds": 5743,
      "Ġvisage": 5744,
      "Ġvisiting": 5745,
      "Ġvowel": 5746,
      "Ġspirits": 5747,
      "Ġknaves": 5748,
      "Ġhopeful": 5749,
      "Ġconjured": 5750,
      "Ġseeks": 5751,
      "Ġworshipp": 5752,
      "Ġslays": 5753,
      "Ġprepared": 5754,
      "Ġtrusty": 5755,
      "Ġexcess": 5756,
      "Ġcharm": 5757,
      "Ġcharnel": 5758,
      "Ġbeggary": 5759,
      "Ġbeggars": 5760,
      "Ġbeginners": 5761,
      "Ġsmilest": 5762,
      "Ġhumorous": 5763,
      "Ġremoved": 5764,
      "coated": 5765,
      "ixity": 5766,
      "place": 5767,
      "spokes": 5768,
      "Ġurging": 5769,
      "Ġentertain": 5770,
      "Ġtying": 5771,
      "Ġtyran": 5772,
      "Ġteam": 5773,
      "Ġtasted": 5774,
      "Ġsmell": 5775,
      "Ġsmelt": 5776,
      "Ġsmelling": 5777,
      "Ġsmells": 5778,
      "Ġsearchers": 5779,
      "Ġsails": 5780,
      "Ġwondering": 5781,
      "Ġwondrous": 5782,
      "Ġbleeds": 5783,
      "Ġbleeding": 5784,
      "Ġborne": 5785,
      "Ġbawdy": 5786,
      "Ġblessing": 5787,
      "Ġblessings": 5788,
      "Ġbuds": 5789,
      "Ġbudge": 5790,
      "Ġfalconer": 5791,
      "Ġfaintly": 5792,
      "Ġfierce": 5793,
      "Ġlodge": 5794,
      "Ġlodges": 5795,
      "Ġdrinks": 5796,
      "Ġdoves": 5797,
      "Ġdrybeat": 5798,
      "Ġdateless": 5799,
      "Ġdwells": 5800,
      "Ġthrusts": 5801,
      "Ġcircle": 5802,
      "Ġcircled": 5803,
      "Ġcalamity": 5804,
      "Ġcures": 5805,
      "Ġcurtain": 5806,
      "Ġcarries": 5807,
      "Ġcarriage": 5808,
      "Ġparamour": 5809,
      "Ġparlous": 5810,
      "Ġpainter": 5811,
      "Ġodds": 5812,
      "Ġoddly": 5813,
      "Ġoccupy": 5814,
      "ĠAdam": 5815,
      "ĠAdieu": 5816,
      "ĠAdvances": 5817,
      "ĠAdversity": 5818,
      "Ġbeasts": 5819,
      "Ġinterr": 5820,
      "Ġintercess": 5821,
      "Ġinterrupt": 5822,
      "Ġinterchanging": 5823,
      "ĠWouldst": 5824,
      "Ġhark": 5825,
      "Ġharsh": 5826,
      "ĠSuspecting": 5827,
      "Ġstarve": 5828,
      "Ġstarved": 5829,
      "Ġstarveth": 5830,
      "Ġstainless": 5831,
      "Ġstumble": 5832,
      "Ġstumbled": 5833,
      "Ġstumbling": 5834,
      "Ġstumblest": 5835,
      "Ġsteals": 5836,
      "Ġstealth": 5837,
      "ĠNever": 5838,
      "ĠNeither": 5839,
      "ĠNews": 5840,
      "Ġweaker": 5841,
      "ĠHadst": 5842,
      "Ġassure": 5843,
      "Ġassailing": 5844,
      "Ġassoci": 5845,
      "Ġassistant": 5846,
      "Ġfaster": 5847,
      "Ġfrowns": 5848,
      "Ġfrowning": 5849,
      "Ġvainly": 5850,
      "Ġvirtues": 5851,
      "Ġspeedy": 5852,
      "Ġgossips": 5853,
      "Ġgossamer": 5854,
      "Ġposterity": 5855,
      "Ġunlook": 5856,
      "Ġunclean": 5857,
      "Ġpresage": 5858,
      "Ġpreserving": 5859,
      "Ġabroach": 5860,
      "Ġplagues": 5861,
      "Ġencamp": 5862,
      "Ġbroken": 5863,
      "Ġheartsick": 5864,
      "Ġextreme": 5865,
      "Ġextremity": 5866,
      "Ġextremes": 5867,
      "Ġextremities": 5868,
      "Ġcountervail": 5869,
      "ĠServingman": 5870,
      "ĠYounger": 5871,
      "Ġscarf": 5872,
      "Ġscarce": 5873,
      "Ġwronged": 5874,
      "Ġdespite": 5875,
      "Ġdespised": 5876,
      "Ġrighteous": 5877,
      "ĠStands": 5878,
      "Ġcheerly": 5879,
      "Ġcheerful": 5880,
      "Ġwarmth": 5881,
      "Ġbetwitched": 5882,
      "Ġsmallest": 5883,
      "Ġcovert": 5884,
      "Ġchances": 5885,
      "Ġburying": 5886,
      "Ġpricks": 5887,
      "Ġpricking": 5888,
      "Ġpurple": 5889,
      "Ġcontradict": 5890,
      "Ġrespects": 5891,
      "Ġrespective": 5892,
      "Ġbirds": 5893,
      "Ġdrunkard": 5894,
      "Ġwretchedness": 5895,
      "Ġconsorted": 5896,
      "Ġdeparted": 5897,
      "Ġsummers": 5898,
      "Ġsenseless": 5899,
      "Ġconduit": 5900,
      "Ġhumours": 5901,
      "Ġtouching": 5902,
      "Ġmurdered": 5903,
      "Ġlaughs": 5904,
      "Ġviolence": 5905,
      "blood": 5906,
      "cheering": 5907,
      "cured": 5908,
      "ecost": 5909,
      "ggart": 5910,
      "nowledge": 5911,
      "suited": 5912,
      "shaft": 5913,
      "shapen": 5914,
      "shaped": 5915,
      "worths": 5916,
      "wearied": 5917,
      "Ġuttered": 5918,
      "Ġidle": 5919,
      "Ġidles": 5920,
      "Ġidolatry": 5921,
      "Ġordained": 5922,
      "Ġtavern": 5923,
      "Ġapology": 5924,
      "Ġaddle": 5925,
      "Ġadded": 5926,
      "Ġsauce": 5927,
      "Ġservants": 5928,
      "Ġfisher": 5929,
      "Ġfishes": 5930,
      "Ġfishified": 5931,
      "Ġfits": 5932,
      "Ġfelon": 5933,
      "Ġfestering": 5934,
      "Ġfreezes": 5935,
      "Ġlane": 5936,
      "Ġlanguish": 5937,
      "Ġlanguage": 5938,
      "Ġlustier": 5939,
      "Ġdireful": 5940,
      "Ġdirection": 5941,
      "Ġnuptial": 5942,
      "Ġcrotche": 5943,
      "Ġclear": 5944,
      "Ġcleft": 5945,
      "Ġclears": 5946,
      "Ġcooks": 5947,
      "Ġcockatri": 5948,
      "Ġcrossing": 5949,
      "Ġheels": 5950,
      "Ġhealths": 5951,
      "Ġhealthsome": 5952,
      "Ġhoodwink": 5953,
      "Ġpacked": 5954,
      "Ġpackthread": 5955,
      "Ġparentage": 5956,
      "Ġpieces": 5957,
      "Ġgrub": 5958,
      "Ġgrubs": 5959,
      "Ġgrudge": 5960,
      "Ġgrieve": 5961,
      "Ġgrievance": 5962,
      "Ġgrievances": 5963,
      "Ġbehoveful": 5964,
      "Ġbegun": 5965,
      "Ġbeguil": 5966,
      "Ġbeguiled": 5967,
      "Ġinfant": 5968,
      "Ġinfold": 5969,
      "Ġinfinite": 5970,
      "Ġinvite": 5971,
      "Ġinvited": 5972,
      "Ġinvocation": 5973,
      "Ġmedicine": 5974,
      "ĠMiscarri": 5975,
      "ĠMistress": 5976,
      "ĠScaring": 5977,
      "Ġeffemin": 5978,
      "ĠConceit": 5979,
      "ĠContempt": 5980,
      "ĠContent": 5981,
      "Ġsteep": 5982,
      "Ġsteads": 5983,
      "Ġsteerage": 5984,
      "Ġstole": 5985,
      "Ġstopp": 5986,
      "Ġstoccata": 5987,
      "Ġstartles": 5988,
      "Ġstifled": 5989,
      "Ġdealing": 5990,
      "ĠJacks": 5991,
      "ĠHaply": 5992,
      "Ġfails": 5993,
      "Ġfairest": 5994,
      "Ġangel": 5995,
      "Ġangels": 5996,
      "Ġangelical": 5997,
      "ĠGreen": 5998,
      "Ġrevel": 5999,
      "Ġrevels": 6000,
      "Ġreverend": 6001,
      "Ġsucking": 6002,
      "Ġseparated": 6003,
      "Ġsevering": 6004,
      "Ġseveral": 6005,
      "Ġseverity": 6006,
      "Ġprisoner": 6007,
      "Ġambling": 6008,
      "Ġambigu": 6009,
      "Ġambuscad": 6010,
      "Ġholp": 6011,
      "Ġdishclout": 6012,
      "Ġunsavoury": 6013,
      "Ġunsubstantial": 6014,
      "Ġunsatisfied": 6015,
      "Ġunhallow": 6016,
      "Ġunhappy": 6017,
      "Ġunharm": 6018,
      "Ġcommission": 6019,
      "Ġprevented": 6020,
      "Ġplucks": 6021,
      "Ġmisadventured": 6022,
      "Ġexpire": 6023,
      "Ġexposition": 6024,
      "Ġexpressly": 6025,
      "Ġclimbs": 6026,
      "Ġgreetings": 6027,
      "Ġdesirest": 6028,
      "Ġtroubled": 6029,
      "Ġendured": 6030,
      "Ġcollar": 6031,
      "Ġcollars": 6032,
      "Ġcolliers": 6033,
      "Ġquarrelled": 6034,
      "Ġcomplain": 6035,
      "Ġtrembles": 6036,
      "Ġmonthly": 6037,
      "Ġprovoke": 6038,
      "Ġprovision": 6039,
      "Ġprovided": 6040,
      "Ġjoiner": 6041,
      "Ġvexed": 6042,
      "Ġtriumphant": 6043,
      "Ġfellowship": 6044,
      "ĠFranciscan": 6045,
      "Ġentreated": 6046,
      "Ġimportuned": 6047,
      "Ġgroaning": 6048,
      "ĠHenceforth": 6049,
      "Ġmaidenheads": 6050,
      "Ġwaxes": 6051,
      "Ġbeggarly": 6052,
      "Ġpilgrimage": 6053,
      "Ġfalsehood": 6054,
      "Ġunluckily": 6055,
      "Ġviolently": 6056,
      "Ġwatery": 6057,
      "Ġstrucken": 6058,
      "boys": 6059,
      "experience": 6060,
      "faners": 6061,
      "footed": 6062,
      "logic": 6063,
      "maids": 6064,
      "sickness": 6065,
      "ĠQueen": 6066,
      "ĠQuarrel": 6067,
      "Ġteat": 6068,
      "Ġtext": 6069,
      "Ġtithe": 6070,
      "Ġtitle": 6071,
      "Ġtraitor": 6072,
      "Ġtraffic": 6073,
      "Ġtables": 6074,
      "helor": 6075,
      "hearted": 6076,
      "Ġsycam": 6077,
      "Ġsympathy": 6078,
      "Ġsurcease": 6079,
      "Ġsurgeon": 6080,
      "Ġsalutation": 6081,
      "Ġsaluteth": 6082,
      "Ġshift": 6083,
      "Ġshield": 6084,
      "Ġsorted": 6085,
      "Ġsignal": 6086,
      "Ġsignify": 6087,
      "Ġsisters": 6088,
      "Ġsisterhood": 6089,
      "Ġsnowy": 6090,
      "Ġmoral": 6091,
      "Ġmorsel": 6092,
      "Ġmartial": 6093,
      "Ġmartyr": 6094,
      "Ġwinter": 6095,
      "Ġwinning": 6096,
      "Ġwinking": 6097,
      "Ġwakened": 6098,
      "Ġboxes": 6099,
      "Ġboisterous": 6100,
      "Ġbrags": 6101,
      "Ġbraggart": 6102,
      "Ġbasket": 6103,
      "Ġbaskets": 6104,
      "Ġfleer": 6105,
      "Ġflecked": 6106,
      "Ġfantasy": 6107,
      "Ġfantastic": 6108,
      "Ġfuneral": 6109,
      "Ġfrighted": 6110,
      "Ġlenity": 6111,
      "Ġlengt": 6112,
      "Ġlouring": 6113,
      "Ġlabour": 6114,
      "Ġlabel": 6115,
      "ĠImmediately": 6116,
      "ĠImmod": 6117,
      "Ġdrop": 6118,
      "Ġdrops": 6119,
      "Ġdignity": 6120,
      "Ġdignified": 6121,
      "Ġthinly": 6122,
      "Ġthrive": 6123,
      "Ġthrice": 6124,
      "Ġnieces": 6125,
      "Ġcurious": 6126,
      "Ġcurfew": 6127,
      "Ġcram": 6128,
      "Ġcracking": 6129,
      "Ġcandle": 6130,
      "Ġcandles": 6131,
      "ĠTorch": 6132,
      "ĠTorments": 6133,
      "Ġhilding": 6134,
      "Ġhildings": 6135,
      "Ġpeevish": 6136,
      "Ġpeople": 6137,
      "Ġpulse": 6138,
      "Ġpuling": 6139,
      "Ġpraised": 6140,
      "Ġpractise": 6141,
      "Ġpathways": 6142,
      "Ġportly": 6143,
      "Ġportentous": 6144,
      "Ġpunish": 6145,
      "Ġpunished": 6146,
      "Ġpursuing": 6147,
      "Ġpursued": 6148,
      "Ġowe": 6149,
      "Ġowes": 6150,
      "stained": 6151,
      "ĠAbove": 6152,
      "ĠAbate": 6153,
      "ĠAfter": 6154,
      "ĠAffection": 6155,
      "Ġbecomed": 6156,
      "Ġbecomes": 6157,
      "lestick": 6158,
      "ĠWhither": 6159,
      "ĠWhiter": 6160,
      "Ġissue": 6161,
      "Ġissuing": 6162,
      "ĠBearing": 6163,
      "ĠBelieve": 6164,
      "ĠBelonging": 6165,
      "ĠCheerly": 6166,
      "ĠChequering": 6167,
      "ĠCompare": 6168,
      "ĠCommend": 6169,
      "ĠOpens": 6170,
      "Ġforsaken": 6171,
      "Ġforsooth": 6172,
      "Ġstabs": 6173,
      "Ġstabbed": 6174,
      "Ġliquor": 6175,
      "Ġliquid": 6176,
      "Ġlimits": 6177,
      "Ġdearer": 6178,
      "Ġdearest": 6179,
      "ĠLovers": 6180,
      "ĠLucio": 6181,
      "ĠLucentio": 6182,
      "ĠLeap": 6183,
      "ĠLeave": 6184,
      "Ġwestward": 6185,
      "ĠPlay": 6186,
      "ĠPlacentio": 6187,
      "ĠProportion": 6188,
      "ĠProfaners": 6189,
      "ĠEnough": 6190,
      "ĠEnviron": 6191,
      "Ġheralds": 6192,
      "ĠGriefs": 6193,
      "Ġbutton": 6194,
      "Ġrefuse": 6195,
      "Ġreflex": 6196,
      "Ġreceipt": 6197,
      "Ġrecepta": 6198,
      "Ġshriek": 6199,
      "Ġshrieks": 6200,
      "Ġmannerly": 6201,
      "Ġprorogue": 6202,
      "Ġprorogued": 6203,
      "Ġprologue": 6204,
      "Ġprolixity": 6205,
      "Ġproportion": 6206,
      "Ġpropagate": 6207,
      "Ġmuffle": 6208,
      "Ġmuffled": 6209,
      "Ġspleen": 6210,
      "Ġsplendor": 6211,
      "Ġspider": 6212,
      "Ġspiders": 6213,
      "Ġhopes": 6214,
      "Ġjourney": 6215,
      "Ġjustly": 6216,
      "Ġjustice": 6217,
      "Ġunbound": 6218,
      "Ġunbruised": 6219,
      "Ġunfirm": 6220,
      "Ġunfurnished": 6221,
      "Ġunkind": 6222,
      "Ġunknown": 6223,
      "Ġunwashed": 6224,
      "Ġunworthiest": 6225,
      "Ġcombine": 6226,
      "Ġcombined": 6227,
      "Ġabhors": 6228,
      "Ġabhorred": 6229,
      "Ġabuses": 6230,
      "Ġabused": 6231,
      "Ġplainly": 6232,
      "Ġenjoy": 6233,
      "Ġenjoin": 6234,
      "Ġearliness": 6235,
      "Ġmistaking": 6236,
      "Ġmistemper": 6237,
      "Ġclubs": 6238,
      "ĠBegot": 6239,
      "Ġfollows": 6240,
      "Ġfollower": 6241,
      "ĠValentio": 6242,
      "ĠValentine": 6243,
      "Ġstretch": 6244,
      "Ġstretches": 6245,
      "Ġwhoreson": 6246,
      "Ġwhistle": 6247,
      "Ġwhistles": 6248,
      "Ġintended": 6249,
      "Ġbestride": 6250,
      "Ġbestrides": 6251,
      "Ġtormented": 6252,
      "Ġconfusions": 6253,
      "Ġserpent": 6254,
      "Ġserpents": 6255,
      "Ġmerrily": 6256,
      "Ġmerriment": 6257,
      "Ġdiscover": 6258,
      "Ġdiscovery": 6259,
      "Ġhungry": 6260,
      "Ġprocures": 6261,
      "Ġmistresses": 6262,
      "Ġcontinue": 6263,
      "Ġcontinuance": 6264,
      "Ġresolve": 6265,
      "Ġresolution": 6266,
      "Ġdispleasure": 6267,
      "Ġdispleased": 6268,
      "Ġdistilled": 6269,
      "Ġdistemperature": 6270,
      "Ġpensive": 6271,
      "Ġpennyworths": 6272,
      "liction": 6273,
      "Ġaccident": 6274,
      "Ġaccidents": 6275,
      "Ġoverthrows": 6276,
      "Ġoverthrown": 6277,
      "Ġsubjects": 6278,
      "Ġdangerous": 6279,
      "Ġdivinest": 6280,
      "ĠHelena": 6281,
      "Ġdragon": 6282,
      "Ġharlots": 6283,
      "Ġharlotry": 6284,
      "Ġutters": 6285,
      "Ġutterance": 6286,
      "Ġmedlar": 6287,
      "Ġmedlars": 6288,
      "ĠHappiness": 6289,
      "ĠHappily": 6290,
      "Ġholiday": 6291,
      "Ġholidame": 6292,
      "Ġdishonourable": 6293,
      "Ġcompliment": 6294,
      "Ġcompliments": 6295,
      "bearers": 6296,
      "Ġschoolboys": 6297,
      "Ġsacrificed": 6298,
      "Ġsacrifices": 6299,
      "Ġbandying": 6300,
      "Ġthreatened": 6301,
      "Ġcherishing": 6302,
      "Ġpestilent": 6303,
      "Ġpestilence": 6304,
      "ĠBeauty": 6305,
      "ĠBeautiful": 6306,
      "Ġhereabouts": 6307,
      "Ġjaunting": 6308,
      "?--'": 6309,
      "Twixt": 6310,
      "better": 6311,
      "beloved": 6312,
      "broad": 6313,
      "catcher": 6314,
      "cupboard": 6315,
      "door": 6316,
      "darting": 6317,
      "dropping": 6318,
      "divining": 6319,
      "finger": 6320,
      "fathom": 6321,
      "govern": 6322,
      "gallant": 6323,
      "hoop": 6324,
      "hours": 6325,
      "juiced": 6326,
      "makers": 6327,
      "mongers": 6328,
      "pinion": 6329,
      "porate": 6330,
      "pacing": 6331,
      "roused": 6332,
      "sheathed": 6333,
      "speeding": 6334,
      "tized": 6335,
      "upturned": 6336,
      "widowed": 6337,
      "Ġerrand": 6338,
      "Ġeternal": 6339,
      "Ġignorance": 6340,
      "Ġversal": 6341,
      "Ġtassel": 6342,
      "Ġtackled": 6343,
      "Ġtardy": 6344,
      "Ġtestify": 6345,
      "Ġtilts": 6346,
      "Ġtempest": 6347,
      "Ġtigers": 6348,
      "Ġtuners": 6349,
      "Ġtetchy": 6350,
      "Ġtraces": 6351,
      "Ġtiptoe": 6352,
      "hetua": 6353,
      "Ġaching": 6354,
      "Ġacknowledge": 6355,
      "Ġamended": 6356,
      "Ġalderman": 6357,
      "Ġacquaintance": 6358,
      "Ġaugmenting": 6359,
      "Ġsorry": 6360,
      "Ġsides": 6361,
      "Ġsquirrel": 6362,
      "Ġsavage": 6363,
      "Ġsafety": 6364,
      "Ġmatron": 6365,
      "Ġmidwife": 6366,
      "Ġmourners": 6367,
      "Ġmoney": 6368,
      "Ġmantle": 6369,
      "Ġmilk": 6370,
      "Ġmasters": 6371,
      "Ġmammet": 6372,
      "Ġmandrakes": 6373,
      "Ġmiles": 6374,
      "Ġmocker": 6375,
      "Ġmountain": 6376,
      "Ġmixture": 6377,
      "Ġwreak": 6378,
      "Ġwinged": 6379,
      "Ġwilful": 6380,
      "Ġwanders": 6381,
      "Ġwaverer": 6382,
      "Ġwicked": 6383,
      "Ġwaddled": 6384,
      "Ġwrenching": 6385,
      "reverence": 6386,
      "Ġbargain": 6387,
      "Ġbaptized": 6388,
      "Ġbauble": 6389,
      "Ġbaleful": 6390,
      "Ġbachelor": 6391,
      "Ġbucklers": 6392,
      "Ġbattlements": 6393,
      "Ġbooted": 6394,
      "Ġfettle": 6395,
      "Ġfurious": 6396,
      "Ġfarthest": 6397,
      "Ġfilm": 6398,
      "Ġfurnish": 6399,
      "Ġfemale": 6400,
      "Ġfigure": 6401,
      "Ġfountains": 6402,
      "Ġfiddlestick": 6403,
      "Ġlarge": 6404,
      "Ġlurk": 6405,
      "Ġlessen": 6406,
      "Ġlacks": 6407,
      "Ġlineament": 6408,
      "Ġdowdy": 6409,
      "Ġdirges": 6410,
      "Ġdigging": 6411,
      "Ġdainty": 6412,
      "Ġdrowsy": 6413,
      "Ġdedicate": 6414,
      "Ġthievish": 6415,
      "Ġthroats": 6416,
      "Ġthwarted": 6417,
      "Ġnarrow": 6418,
      "Ġnourish": 6419,
      "Ġnapkins": 6420,
      "Ġnuns": 6421,
      "Ġnumbers": 6422,
      "Ġnipple": 6423,
      "Ġcentre": 6424,
      "Ġcordial": 6425,
      "Ġcaptain": 6426,
      "Ġcopest": 6427,
      "Ġcertain": 6428,
      "Ġcaitiff": 6429,
      "Ġcaetera": 6430,
      "ĠTartar": 6431,
      "ĠTickling": 6432,
      "ĠTempering": 6433,
      "ĠTiberio": 6434,
      "ĠTransparent": 6435,
      "Ġheareth": 6436,
      "Ġhurry": 6437,
      "Ġhinds": 6438,
      "Ġhooks": 6439,
      "Ġhurdle": 6440,
      "Ġhumbly": 6441,
      "Ġhymns": 6442,
      "Ġhorrible": 6443,
      "Ġpomegranate": 6444,
      "Ġpentecost": 6445,
      "Ġprudence": 6446,
      "Ġpantry": 6447,
      "Ġpeppered": 6448,
      "Ġphysic": 6449,
      "Ġpunto": 6450,
      "Ġpoultice": 6451,
      "Ġparson": 6452,
      "Ġpierced": 6453,
      "Ġpupil": 6454,
      "Ġpipes": 6455,
      "Ġpuffs": 6456,
      "Ġphrase": 6457,
      "Ġpiercing": 6458,
      "Ġoperation": 6459,
      "Ġobscured": 6460,
      "Ġyellow": 6461,
      "Ġyesternight": 6462,
      "Ġyielding": 6463,
      "stools": 6464,
      "ĠAurora": 6465,
      "ĠAntony": 6466,
      "ĠAthwart": 6467,
      "ĠAppear": 6468,
      "ĠAdding": 6469,
      "ĠAccursed": 6470,
      "ĠAffliction": 6471,
      "ĠApril": 6472,
      "Ġgleek": 6473,
      "Ġgriping": 6474,
      "Ġgiddy": 6475,
      "Ġgentler": 6476,
      "Ġgapes": 6477,
      "Ġgadding": 6478,
      "Ġgorgeous": 6479,
      "Ġbeetle": 6480,
      "Ġbedeck": 6481,
      "Ġbenefice": 6482,
      "Ġbehests": 6483,
      "Ġbescreen": 6484,
      "Ġyoungest": 6485,
      "Ġoffered": 6486,
      "ĠRemnants": 6487,
      "ĠRiddling": 6488,
      "Ġinfectious": 6489,
      "Ġinexorable": 6490,
      "Ġinauspicious": 6491,
      "Ġincorporate": 6492,
      "Ġinundation": 6493,
      "ĠWives": 6494,
      "ĠWisely": 6495,
      "Ġmeasuring": 6496,
      "Ġmessages": 6497,
      "Ġmeagre": 6498,
      "Ġmeddle": 6499,
      "Ġmelancholy": 6500,
      "Ġhaughty": 6501,
      "ĠMartino": 6502,
      "ĠMaintains": 6503,
      "ĠMurder": 6504,
      "ĠMisshapen": 6505,
      "ĠSovereign": 6506,
      "ĠSimon": 6507,
      "ĠSearch": 6508,
      "ĠSoundpost": 6509,
      "ĠStabs": 6510,
      "ĠSubtly": 6511,
      "ĠSnatching": 6512,
      "Ġembrace": 6513,
      "Ġeagle": 6514,
      "Ġeastern": 6515,
      "Ġelflocks": 6516,
      "Ġeloquence": 6517,
      "Ġesteem": 6518,
      "Ġemperor": 6519,
      "ĠBrags": 6520,
      "ĠBalthasar": 6521,
      "ĠBondage": 6522,
      "ĠBetroth": 6523,
      "ĠCourage": 6524,
      "ĠCondemned": 6525,
      "ĠCophetua": 6526,
      "ĠCulling": 6527,
      "ĠConsort": 6528,
      "ĠClubs": 6529,
      "ĠCynthia": 6530,
      "ĠCleopatra": 6531,
      "Ġstroke": 6532,
      "Ġstudy": 6533,
      "Ġsteeds": 6534,
      "ĠFeeling": 6535,
      "Ġlimping": 6536,
      "ĠNURSE": 6537,
      "Ġdepend": 6538,
      "Ġdeformities": 6539,
      "Ġdecreed": 6540,
      "Ġdeceased": 6541,
      "Ġdexterity": 6542,
      "Ġumpire": 6543,
      "ĠJames": 6544,
      "ĠLivia": 6545,
      "ĠLifts": 6546,
      "keeper": 6547,
      "ĠHeaven": 6548,
      "ĠHunting": 6549,
      "ĠPhoebus": 6550,
      "ĠPerchance": 6551,
      "ĠPursued": 6552,
      "ĠPetrarch": 6553,
      "ĠPhaethon": 6554,
      "ĠPetrucio": 6555,
      "ĠEarth": 6556,
      "ĠEthiope": 6557,
      "Ġsociable": 6558,
      "Ġsociety": 6559,
      "Ġassembly": 6560,
      "Ġfamiliar": 6561,
      "Ġfashion": 6562,
      "Ġshanks": 6563,
      "Ġanatomy": 6564,
      "ĠGallop": 6565,
      "ĠGroan": 6566,
      "ĠGrindstone": 6567,
      "ĠGuests": 6568,
      "Ġrequest": 6569,
      "Ġredeem": 6570,
      "Ġreeky": 6571,
      "Ġreverso": 6572,
      "Ġrevolt": 6573,
      "Ġreclaim": 6574,
      "Ġreconcile": 6575,
      "Ġreligion": 6576,
      "Ġshowering": 6577,
      "Ġshunn": 6578,
      "Ġshoemaker": 6579,
      "Ġsuffer": 6580,
      "Ġsuspected": 6581,
      "Ġdoctrine": 6582,
      "Ġalligator": 6583,
      "Ġnecessaries": 6584,
      "Ġneglecting": 6585,
      "Ġnephew": 6586,
      "Ġsemblance": 6587,
      "Ġseize": 6588,
      "Ġprostrate": 6589,
      "Ġprincox": 6590,
      "Ġmumbling": 6591,
      "Ġvictory": 6592,
      "ĠTogether": 6593,
      "Ġspices": 6594,
      "Ġsparkling": 6595,
      "Ġspheres": 6596,
      "Ġspecial": 6597,
      "Ġswounded": 6598,
      "Ġgovernment": 6599,
      "Ġargument": 6600,
      "Ġarbitrating": 6601,
      "Ġattach": 6602,
      "Ġtherewithal": 6603,
      "Ġheretics": 6604,
      "ĠDelay": 6605,
      "ĠDirect": 6606,
      "ĠDigressing": 6607,
      "ĠDisplant": 6608,
      "Ġcanopy": 6609,
      "Ġgoodfellows": 6610,
      "Ġrode": 6611,
      "Ġropes": 6612,
      "Ġrattling": 6613,
      "Ġrotten": 6614,
      "ĠForgetting": 6615,
      "ĠForbidden": 6616,
      "Ġblazon": 6617,
      "Ġblisters": 6618,
      "Ġbladders": 6619,
      "apparell": 6620,
      "Ġmarchpane": 6621,
      "Ġcontagion": 6622,
      "Ġconveniently": 6623,
      "Ġconcludes": 6624,
      "Ġconjurations": 6625,
      "Ġconsequence": 6626,
      "Ġconstrains": 6627,
      "Ġjaws": 6628,
      "Ġjewel": 6629,
      "Ġorisons": 6630,
      "Ġartificial": 6631,
      "Ġpoperin": 6632,
      "Ġdisperse": 6633,
      "Ġdistressed": 6634,
      "Ġdissemblers": 6635,
      "Ġquinces": 6636,
      "Ġquivering": 6637,
      "Ġunattainted": 6638,
      "Ġuniversal": 6639,
      "Ġunnatural": 6640,
      "Ġunpleasing": 6641,
      "Ġunreasonable": 6642,
      "Ġpredominant": 6643,
      "Ġprevails": 6644,
      "Ġpredicament": 6645,
      "Ġprefixed": 6646,
      "Ġtrumpet": 6647,
      "Ġabsolved": 6648,
      "Ġplaintain": 6649,
      "Ġenpierced": 6650,
      "Ġengrossing": 6651,
      "Ġbreaches": 6652,
      "devouring": 6653,
      "Ġtwisted": 6654,
      "Ġmisbehaved": 6655,
      "Ġmischance": 6656,
      "Ġmisgives": 6657,
      "Ġmischief": 6658,
      "Ġmisapplied": 6659,
      "Ġexecution": 6660,
      "ĠSojourn": 6661,
      "performing": 6662,
      "ĠUndraws": 6663,
      "ĠVirtue": 6664,
      "ĠVitravio": 6665,
      "Ġscales": 6666,
      "Ġhenceforth": 6667,
      "ĠAngelica": 6668,
      "Ġaffecting": 6669,
      "Ġchiefly": 6670,
      "ĠSeeking": 6671,
      "Ġriddling": 6672,
      "Ġripening": 6673,
      "Ġheadstrong": 6674,
      "ĠStrange": 6675,
      "Ġwhispering": 6676,
      "ĠRebeck": 6677,
      "ĠRevolts": 6678,
      "ĠRebellious": 6679,
      "ĠRemembering": 6680,
      "Ġrestorative": 6681,
      "Ġcoachmakers": 6682,
      "Ġcockerel": 6683,
      "Ġstratagems": 6684,
      "Ġunthankfulness": 6685,
      "Ġadjacent": 6686,
      "Ġtreacherous": 6687,
      "Ġtrespass": 6688,
      "ĠUnplagued": 6689,
      "ĠUnseemly": 6690,
      "ĠUncomfortable": 6691,
      "ĠUnwieldy": 6692,
      "Ġappertaining": 6693,
      "Ġgrasshoppers": 6694,
      "Ġprofane": 6695,
      "Ġjocund": 6696,
      "absolver": 6697,
      "Ġvessels": 6698,
      "Ġpurchase": 6699,
      "Ġpurblind": 6700,
      "Ġpurgatory": 6701,
      "Ġdeliciousness": 6702,
      "Ġtributary": 6703,
      "Ġdisparagement": 6704,
      "Ġmerchandise": 6705,
      "Ġopportunity": 6706,
      "Ġdrizzle": 6707,
      "Ġoverwhelming": 6708,
      "ĠBenedicite": 6709,
      "Ġafflicted": 6710,
      "Ġdoublet": 6711,
      "ĠChristian": 6712,
      "ĠProdigious": 6713,
      "Ġmaidenhoods": 6714,
      "Ġemployment": 6715,
      "Ġdeflowered": 6716,
      "Ġtyrannous": 6717,
      "Ġintercession": 6718,
      "Ġassociate": 6719,
      "Ġnuptials": 6720,
      "Ġcrotchets": 6721,
      "Ġcockatrice": 6722,
      "ĠMiscarried": 6723,
      "Ġeffeminate": 6724,
      "Ġambiguities": 6725,
      "Ġambuscadoes": 6726,
      "experienced": 6727,
      "Ġsycamore": 6728,
      "Ġfantasticoes": 6729,
      "Ġlengthens": 6730,
      "ĠImmoderately": 6731,
      "ĠEnvironed": 6732,
      "Ġreceptacle": 6733
    },
    "merges": [
      "č Ċ",
      "Ġ t",
      "h e",
      "Ġ a",
      "Ġ s",
      "o u",
      "Ġ m",
      "Ġ w",
      "i n",
      "h a",
      "r e",
      "Ġ b",
      "Ġt he",
      "n d",
      "i s",
      "l l",
      "Ġ f",
      "e r",
      "Ġ l",
      "Ġ I",
      "i t",
      "Ġ d",
      "o r",
      "Ġt h",
      "Ġ n",
      "Ġ c",
      "o n",
      "a r",
      "v e",
      "ha t",
      "m e",
      "Ġ T",
      "Ġt o",
      "s e",
      "Ġ he",
      "o t",
      "Ġ h",
      "a n",
      "Ġ p",
      "Ġ o",
      "Ġ y",
      "Ġa nd",
      "s t",
      "Ġ A",
      "Ġ g",
      "in g",
      "Ġb e",
      "o w",
      "Ġy ou",
      "e n",
      "Ġo f",
      "e t",
      "a t",
      "a y",
      "Ġ R",
      "o me",
      "Ġ in",
      "l e",
      "Ġ W",
      "' s",
      "Ġm y",
      "Ġm e",
      "u r",
      "Ġ is",
      "g h",
      "it h",
      "u t",
      "c h",
      "c e",
      "a d",
      "Ġ ha",
      "Ġ M",
      "Ġ S",
      "l d",
      "Ġt hat",
      "i r",
      "E T",
      "Ġth ou",
      "Ġn ot",
      "e s",
      "Ġ e",
      "Ġ B",
      "Ġ C",
      "U L",
      "o o",
      "Ġw ith",
      "gh t",
      "i ll",
      "Ġ O",
      "n t",
      "ĠA nd",
      "e d",
      "r i",
      "Ġf or",
      "o ve",
      "Ġs t",
      "Ġ F",
      "Ġl i",
      "Ġ N",
      "Ġd e",
      "Ġ u",
      "Ġ J",
      "Ġ it",
      "Ġ L",
      "k e",
      "a l",
      "i d",
      "Ġw e",
      "Ġth is",
      "E O",
      "M EO",
      "O MEO",
      "ĠR OMEO",
      "o m",
      "ou r",
      "Ġ H",
      "E N",
      "Ġ P",
      "' d",
      "Ġ E",
      "a in",
      "Ġs o",
      "Ġth y",
      "Ġhe r",
      "Ġl ove",
      "u l",
      "c k",
      "ur se",
      "Ġa s",
      "i ght",
      "l y",
      "on e",
      "he r",
      "I O",
      "Ġw ill",
      "Ġthe e",
      "Ġf a",
      "ĠT he",
      "i m",
      "o re",
      "v er",
      "I ET",
      "Ġs ha",
      "UL IET",
      "ĠJ ULIET",
      "a s",
      "en t",
      "Ġ k",
      "oo d",
      "ou ld",
      "ome o",
      "e ll",
      "Ġa n",
      "Ġh is",
      "ĠR omeo",
      "ĠL A",
      "r a",
      "ĠT h",
      "Ġ G",
      "R I",
      "A P",
      "ĠC AP",
      "UL ET",
      "ĠCAP ULET",
      "e ar",
      "h i",
      "Ġha ve",
      "ĠN urse",
      "at h",
      "e a",
      "Ġ '",
      "Ġs he",
      "Ġb ut",
      "ar t",
      "Ġh im",
      "r u",
      "i f",
      "Ġ re",
      "Ġs h",
      "Ġs u",
      "Ġd o",
      "a ke",
      "Ġyou r",
      "or d",
      "an t",
      "Ġn o",
      "Ġsha ll",
      "g e",
      "Ġa ll",
      "Ġm an",
      "Ġn e",
      "Ġu p",
      "i l",
      "Ġs e",
      "Ġf r",
      "' ll",
      "Ġp r",
      "ou t",
      "Ġm u",
      "Ġ on",
      "Ġb y",
      "Ġc ome",
      "ĠW hat",
      "A R",
      "E R",
      "Ġ v",
      "Ġw hat",
      "ĠT o",
      "C E",
      "Ġs p",
      "ot h",
      "Ġfr om",
      "a me",
      "h o",
      "nt er",
      "i ve",
      "t er",
      "ou s",
      "ha n",
      "Ġn ight",
      "ĠT hat",
      "in e",
      "O L",
      "Ġw he",
      "Ġs w",
      "V OL",
      "Ġg o",
      "ĠB ut",
      "ĠB EN",
      "VOL IO",
      "ĠBEN VOLIO",
      "u re",
      "a ll",
      "Ġ hat",
      "Ġa r",
      "Ġa t",
      "in d",
      "Ġthe re",
      "ĠE nter",
      "e p",
      "Ġhe re",
      "Ġk n",
      "a st",
      "i e",
      "Ġ D",
      "ĠF RI",
      "ĠFRI AR",
      "C U",
      "T IO",
      "a m",
      "i on",
      "u s",
      "Ġa m",
      "ĠM ER",
      "CU TIO",
      "ĠMER CUTIO",
      "Ġc an",
      "Ġg ood",
      "- -",
      "r ow",
      "t h",
      "U R",
      "Ġde ath",
      "s s",
      "Ġa re",
      "EN CE",
      "ĠLA UR",
      "ĠLAUR ENCE",
      "a ck",
      "Ġs ay",
      "ot her",
      "ad y",
      "a nd",
      "q u",
      "Ġ r",
      "ĠE x",
      "D Y",
      "ĠLA DY",
      "hi ch",
      "a ve",
      "Ġm ore",
      "Ġthe n",
      "se l",
      "ĠF or",
      "al t",
      "g u",
      "r y",
      "ou nd",
      "Ġl et",
      "i c",
      "o d",
      "Ġs ir",
      "Ġn ow",
      "Ġh o",
      "oo k",
      "b alt",
      "i me",
      "y balt",
      "Ġ our",
      "Ġ if",
      "Ġb l",
      "Ġd ay",
      "a re",
      "m b",
      "Ġw ould",
      "or t",
      "Ġto o",
      "at e",
      "a p",
      "Ġm ar",
      "Ġc on",
      "er s",
      "ĠT ybalt",
      "a k",
      "Ġ j",
      "i et",
      "Ġ Y",
      "Ġ or",
      "Ġhat h",
      "a u",
      "f ore",
      "Ġ out",
      "Ġs ome",
      "Ġar t",
      "p p",
      "Ġ one",
      "Ġl ady",
      "Ġde ad",
      "e l",
      "Ġt han",
      "Ġw as",
      "ar d",
      "Ġe y",
      "sel f",
      "e st",
      "e et",
      "Ġthe ir",
      "ri e",
      "ul iet",
      "Ġfa ir",
      "Ġkn ow",
      "f e",
      "n ce",
      "ou se",
      "Ġm ad",
      "Ġthe y",
      "on g",
      "ĠJ uliet",
      "Ġsh ould",
      "h y",
      "m an",
      "Ġm ay",
      "Ġp o",
      "Ġse e",
      "b le",
      "f ul",
      "n g",
      "o se",
      "Ġw or",
      "Ġd is",
      "ĠW he",
      "Ġwe ll",
      "a id",
      "o nd",
      "Ġ qu",
      "Ġa l",
      "Ġs l",
      "in k",
      "Ġthe m",
      "ĠM y",
      "Ġt ime",
      "Ġa g",
      "Ġha st",
      "Ġu n",
      "ent le",
      "Ġsu ch",
      "O N",
      "Ġt ell",
      "Ġd id",
      "es s",
      "ĠH e",
      "Ġl o",
      "Ġy et",
      "ver y",
      "ĠTh ou",
      "gu e",
      "A L",
      "i es",
      "is e",
      "is h",
      "Ġg ive",
      "Ġha nd",
      "Ġmu st",
      "Ġwhe n",
      "AL T",
      "a ge",
      "i re",
      "ĠI s",
      "Ġd oth",
      "Ġc om",
      "Ġp re",
      "Ġup on",
      "c t",
      "o y",
      "Ġt ru",
      "Ġa b",
      "Ġm ake",
      "Ġthe se",
      "Ġl ook",
      "Ġp l",
      "Ġg entle",
      "at ch",
      "ĠC ome",
      "Ġli ke",
      "ĠTh is",
      "Ġsw eet",
      "i o",
      "Ġw ord",
      "er v",
      "Ġli ght",
      "id e",
      "ĠP A",
      "Ġmu ch",
      "Ġag ain",
      "u nt",
      "Ġ en",
      "Ġh ouse",
      "Ġe ar",
      "ĠC ap",
      "ear s",
      "ea k",
      "p s",
      "Ġb r",
      "Ġb re",
      "it e",
      "or n",
      "or row",
      "Ġhe art",
      "ĠA s",
      "at her",
      "ur n",
      "Ġli ve",
      "Ġwe re",
      "il t",
      "Ġwhe re",
      "d e",
      "t a",
      "Ġt w",
      "Ġt ake",
      "Ġm is",
      "Ġw ho",
      "in ce",
      "ĠI n",
      "ĠI t",
      "Ġg one",
      "ir st",
      "Ġe x",
      "ul et",
      "ĠCap ulet",
      "Ġw hich",
      "Ġn urse",
      "Ġc ou",
      "Ġc all",
      "Ġhe ave",
      "ĠS erv",
      "RI S",
      "ĠPA RIS",
      "Ġheave n",
      "e m",
      "o s",
      "he d",
      "Ġw o",
      "Ġb ack",
      "Ġn ame",
      "Ġc l",
      "Ġh ow",
      "ow n",
      "ĠW ith",
      "Ġu s",
      "Ġne w",
      "ĠEx it",
      "ĠWhe re",
      "a w",
      "e unt",
      "Ġ čĊ",
      "er c",
      "it her",
      "an ce",
      "Ġp art",
      "ĠS o",
      "ĠB e",
      "Ġsp eak",
      "ĠEx eunt",
      "Ġmar ri",
      "o st",
      "Ġ ru",
      "Ġf l",
      "me nt",
      "ĠO r",
      "Ġde ar",
      "ra ve",
      "ĠG od",
      "Ġey es",
      "i g",
      "i ck",
      "n e",
      "p e",
      "p er",
      "Ġ U",
      "Ġa w",
      "Ġm en",
      "Ġm ine",
      "Ġf o",
      "on ta",
      "ĠW hich",
      "ĠM onta",
      "ĠO f",
      "ri ar",
      "ra w",
      "ĠServ ant",
      "A M",
      "d ay",
      "r o",
      "Ġ V",
      "ar is",
      "Ġo ld",
      "ing s",
      "ĠB y",
      "Ġst ay",
      "ĠH ow",
      "ĠP aris",
      "ĠG o",
      "ĠY ou",
      "o ld",
      "t is",
      "Ġ other",
      "Ġs c",
      "it y",
      "Ġc h",
      "Ġhe ar",
      "Ġst and",
      "ĠN o",
      "ain t",
      "if e",
      "Ġcome s",
      "ic i",
      "Ġtru e",
      "a le",
      "i le",
      "v ing",
      "w ell",
      "Ġ very",
      "Ġw ilt",
      "in s",
      "Ġf ather",
      "ĠI f",
      "Ġc ha",
      "Ġhe nce",
      "Ġh our",
      "Ġst re",
      "au ght",
      "C EN",
      "a ble",
      "i ce",
      "Ġf ind",
      "an s",
      "ĠA n",
      "ĠW e",
      "ĠS CEN",
      "ĠF irst",
      "Ġli e",
      "ĠN ow",
      "ĠThe n",
      "Ġbl ood",
      "ĠSCEN E",
      "e nd",
      "o ck",
      "Ġ ke",
      "ou gh",
      "Ġw r",
      "Ġl ord",
      "Ġd re",
      "Ġd ie",
      "Ġth ink",
      "ar k",
      "Ġbe d",
      "en ce",
      "ĠW ho",
      "ĠMonta gue",
      ", --",
      "B ALT",
      "G U",
      "Y BALT",
      "f t",
      "n ot",
      "t y",
      "t re",
      "Ġa f",
      "ou d",
      "Ġw it",
      "Ġb an",
      "Ġf ear",
      "Ġl ong",
      "Ġc hi",
      "ve n",
      "me n",
      "ĠT YBALT",
      "ĠA y",
      "Ġg re",
      "ĠW hy",
      "Ġha d",
      "ĠS he",
      "al k",
      "Ġfa ce",
      "ĠThe re",
      "mb er",
      "rie f",
      "GU E",
      "P S",
      "a ce",
      "i ous",
      "o l",
      "w n",
      "ou l",
      "Ġm aid",
      "Ġb oth",
      "Ġd es",
      "Ġyou ng",
      "le ss",
      "ĠS e",
      "ĠS AM",
      "Ġe art",
      "Ġli fe",
      "Ġj oy",
      "ĠHe re",
      "aught er",
      "Ġke ep",
      "Ġchi ld",
      "PS ON",
      "ĠSAM PSON",
      "A GUE",
      "T AGUE",
      "a se",
      "i gh",
      "o p",
      "Ġ ri",
      "Ġt ears",
      "is hed",
      "Ġf rie",
      "Ġd own",
      "ar y",
      "Ġhe ad",
      "Ġbe en",
      "Ġbe fore",
      "ow s",
      "ow er",
      "le s",
      "le ep",
      "ĠM ON",
      "ĠM erc",
      "Ġan y",
      "Ġpr ay",
      "Ġcan not",
      "Ġeart h",
      "Ġfrie nd",
      "ĠMON TAGUE",
      "a g",
      "Ġl ea",
      "it t",
      "Ġc ous",
      "Ġg rave",
      "ĠW ell",
      "ur s",
      "ut io",
      "ĠM us",
      "ĠS t",
      "ĠS ha",
      "our t",
      "Ġfa ll",
      "ea ce",
      "Ġne ed",
      "Ġpr ince",
      "Ġlet ter",
      "Ġho ly",
      "Ġey e",
      "Ġmad e",
      "Ġwor ld",
      "Ġmarri ed",
      "Ġaw ay",
      "Ġdre am",
      "ĠMerc utio",
      "Ġcous in",
      "N CE",
      "a ut",
      "c ond",
      "g er",
      "s w",
      "u ll",
      "Ġs on",
      "Ġs ound",
      "Ġb ri",
      "is on",
      "Ġl e",
      "Ġth ing",
      "Ġc he",
      "Ġbe g",
      "Ġbe aut",
      "le d",
      "ur ch",
      "nt y",
      "ĠP RI",
      "Ġfa ith",
      "ĠG ood",
      "Ġhat e",
      "ak es",
      "ĠPRI NCE",
      "A S",
      "E G",
      "H AS",
      "O R",
      "R EG",
      "d d",
      "e k",
      "h ing",
      "i ed",
      "m p",
      "n ight",
      "Ġm ove",
      "Ġm other",
      "Ġw h",
      "Ġw ar",
      "in t",
      "re l",
      "Ġb id",
      "Ġf riar",
      "Ġc ell",
      "ar s",
      "Ġhe l",
      "Ġo wn",
      "Ġbe t",
      "Ġin t",
      "ET ER",
      "ĠB ALT",
      "oo m",
      "ill ain",
      "Ġli es",
      "Ġli ps",
      "Ġwe ep",
      "ĠP ETER",
      "as s",
      "Ġk ill",
      "ĠTh y",
      "ĠG REG",
      "Ġsu n",
      "Ġne ver",
      "Ġsl ain",
      "Ġtw o",
      "ĠMus ici",
      "HAS AR",
      "OR Y",
      "ĠBALT HASAR",
      "ĠGREG ORY",
      ", '",
      "c c",
      "i er",
      "i ent",
      "m orrow",
      "t u",
      "Ġ ill",
      "Ġt r",
      "Ġs oul",
      "Ġw ife",
      "Ġd aughter",
      "Ġth ose",
      "se s",
      "Ġp ut",
      "et er",
      "ĠR e",
      "ur d",
      "ur t",
      "Ġe nd",
      "Ġk ins",
      "Ġre st",
      "Ġv illain",
      "ĠD o",
      "Ġear ly",
      "Ġru n",
      "ig n",
      ". '",
      "b and",
      "f ort",
      "r ant",
      "u n",
      "u st",
      "w ard",
      "Ġt ill",
      "Ġt alk",
      "Ġs m",
      "Ġw hy",
      "re d",
      "re e",
      "is s",
      "Ġc o",
      "Ġp eace",
      "ĠA h",
      "ĠA l",
      "Ġof f",
      "Ġe re",
      "Ġst r",
      "ĠN ot",
      "Ġu se",
      "Ġu nt",
      "ver s",
      "ord s",
      "ast er",
      "au se",
      "Ġpo or",
      "Ġal one",
      "Ġgentle man",
      "Ġbre ath",
      "Ġch urch",
      "ĠSha ll",
      "Ġhel p",
      "T is",
      "a v",
      "m s",
      "p t",
      "u a",
      "Ġ ra",
      "Ġa d",
      "Ġs ame",
      "Ġs aid",
      "Ġm orn",
      "ll ow",
      "Ġn one",
      "Ġc ould",
      "on a",
      "ar ry",
      "Ġh us",
      "Ġg rief",
      "Ġbe st",
      "ad e",
      "Ġha pp",
      "ĠM ant",
      "ĠS ome",
      "Ġnot hing",
      "Ġe ver",
      "oo l",
      "ĠN ay",
      "ain s",
      "Ġso on",
      "as ure",
      "ĠTh urs",
      "Ġqu ar",
      "Ġhast e",
      "Ġhand s",
      "Ġlive s",
      "Ġwo e",
      "Ġnew s",
      "Ġlea ve",
      "ĠMusici an",
      "Ġhus band",
      "ĠMant ua",
      "ĠThurs day",
      "a il",
      "e el",
      "f or",
      "i v",
      "l se",
      "Ġ [",
      "Ġt or",
      "he s",
      "Ġs in",
      "Ġs leep",
      "ou ght",
      "Ġm ost",
      "Ġm aster",
      "Ġw all",
      "Ġw ind",
      "Ġw atch",
      "re t",
      "Ġb od",
      "er ona",
      "Ġth ine",
      "Ġc ourt",
      "Ġmy self",
      "Ġst ill",
      "ĠL a",
      "ul t",
      "ĠThe y",
      "im p",
      "Ġsha me",
      "Ġan other",
      "ĠG ive",
      "hi le",
      "Ġse nd",
      "ame nt",
      "Ġcon f",
      "ĠWhe n",
      "Ġcom p",
      "Ġab ove",
      "ĠBe ing",
      "ĠV erona",
      "ĠSe cond",
      "b e",
      "i ke",
      "l t",
      "n ess",
      "o ke",
      "u p",
      "u mb",
      "Ġt re",
      "Ġt on",
      "Ġt urn",
      "Ġs er",
      "Ġs et",
      "Ġm er",
      "Ġw ay",
      "nd er",
      "Ġl ate",
      "Ġl aw",
      "Ġl itt",
      "ĠI I",
      "Ġd raw",
      "Ġn or",
      "Ġc han",
      "on our",
      "Ġto mb",
      "se nt",
      "Ġhe av",
      "Ġh ither",
      "Ġp er",
      "Ġp ass",
      "Ġy e",
      "Ġy ears",
      "Ġbe ar",
      "Ġbe ing",
      "at s",
      "ad am",
      "ĠM adam",
      "oo se",
      "Ġwith in",
      "Ġfor g",
      "Ġfor th",
      "ĠF are",
      "ĠL et",
      "ĠH er",
      "ĠP eter",
      "Ġdo st",
      "Ġman y",
      "ure nce",
      "Ġthere fore",
      "Ġmar ry",
      "ĠY our",
      "ard on",
      "fe ct",
      "Ġpo ison",
      "Ġdis c",
      "Ġcom fort",
      "Ġpl ace",
      "ĠU n",
      "Ġche ek",
      "Ġbeaut y",
      "Ġkins man",
      "Ġhapp y",
      "ĠLa urence",
      "Ġlitt le",
      "ĠFare well",
      "l ing",
      "r d",
      "x t",
      "Ġa pp",
      "Ġm on",
      "Ġm akes",
      "Ġm urd",
      "Ġb ur",
      "is ed",
      "Ġf ool",
      "Ġl ay",
      "Ġd are",
      "Ġc ame",
      "ĠT han",
      "se d",
      "Ġh u",
      "Ġp ri",
      "Ġg r",
      "at ter",
      "ĠW ill",
      "ĠW atch",
      "Ġme an",
      "Ġthou ght",
      "Ġe very",
      "Ġwith out",
      "ĠO ne",
      "ĠF riar",
      "ĠH ath",
      "ent er",
      "Ġre me",
      "Ġpr o",
      "Ġmu s",
      "ak ing",
      "Ġj o",
      "Ġthan k",
      "Ġmad am",
      "Ġab out",
      "Ġpl ay",
      "Ġbr ing",
      "Ġmis tre",
      "Ġwho se",
      "Ġcl ose",
      "Ġmarri age",
      "Ġcha mber",
      "ĠThere fore",
      "Ġwar rant",
      "Ġbet ter",
      "Ġmorn ing",
      "Ġquar rel",
      "Ġbod y",
      "Ġton gue",
      "' t",
      "a b",
      "c u",
      "c ome",
      "c ause",
      "e en",
      "f f",
      "i al",
      "n ing",
      "p are",
      "u b",
      "Ġ ve",
      "Ġa ir",
      "Ġs ad",
      "Ġs il",
      "Ġs orrow",
      "Ġs aw",
      "Ġm in",
      "Ġm ind",
      "Ġw ed",
      "Ġb ound",
      "Ġb oy",
      "is t",
      "Ġd one",
      "Ġth r",
      "Ġn at",
      "on es",
      "Ġh one",
      "Ġh igh",
      "Ġh onour",
      "Ġp le",
      "Ġp ur",
      "Ġp ale",
      "Ġp ardon",
      "Ġg et",
      "ĠR os",
      "Ġme et",
      "ĠM arry",
      "Ġe ven",
      "Ġe lse",
      "Ġfor tu",
      "Ġst ra",
      "Ġde l",
      "al ine",
      "ĠH ave",
      "ĠH old",
      "Ġfa re",
      "Ġsha lt",
      "as k",
      "ent y",
      "Ġk ind",
      "Ġk iss",
      "Ġhim self",
      "Ġv a",
      "ho ld",
      "Ġsw ear",
      "Ġar m",
      "Ġsay s",
      "Ġbl ack",
      "Ġcon t",
      "Ġear s",
      "Ġtw enty",
      "Ġcou n",
      "Ġcall s",
      "Ġfl ower",
      "per ate",
      "Ġstre et",
      "Ġban ish",
      "Ġban ished",
      "Ġgre at",
      "Ġdes perate",
      "Ġri ch",
      "sw er",
      "Ġheav y",
      "ĠRos aline",
      "Ġstra ight",
      ": --",
      "a z",
      "b an",
      "b ed",
      "c ary",
      "c ient",
      "g s",
      "g ed",
      "i z",
      "l f",
      "p ot",
      "p en",
      "u d",
      "Ġt ri",
      "he cary",
      "Ġs ight",
      "ou nty",
      "Ġw om",
      "Ġw ast",
      "Ġw ise",
      "re ss",
      "Ġf ight",
      "Ġf ell",
      "Ġf ie",
      "Ġf ire",
      "Ġf irst",
      "Ġl ear",
      "Ġl ast",
      "Ġd u",
      "or y",
      "Ġc ase",
      "Ġh ide",
      "Ġy ond",
      "ĠA t",
      "Ġg l",
      "Ġg ra",
      "Ġyou th",
      "et h",
      "at ion",
      "ĠS p",
      "Ġthou gh",
      "ĠO n",
      "Ġst ir",
      "ĠF r",
      "ĠN or",
      "Ġde v",
      "Ġas k",
      "as on",
      "Ġan swer",
      "hi p",
      "Ġre s",
      "Ġsh ow",
      "Ġno ble",
      "Ġon ce",
      "Ġon ly",
      "Ġgo ld",
      "ĠD e",
      "ĠD oth",
      "row s",
      "Ġr o",
      "Ġday s",
      "Ġdis p",
      "Ġdis t",
      "Ġagain st",
      "Ġcou nty",
      "Ġcl oud",
      "Ġfl ow",
      "Ġfo ot",
      "Ġfo llow",
      "Ġother s",
      "Ġwr it",
      "Ġbri de",
      "Ġint o",
      "Ġtor ch",
      "Ġser ve",
      "Ġforg et",
      "Ġgr ound",
      "Ġmistre ss",
      "Ġfortu ne",
      "Ġfare well",
      "Ġva ult",
      "pot hecary",
      "a c",
      "a ch",
      "c ha",
      "e ch",
      "e ed",
      "e al",
      "i ld",
      "n ed",
      "o on",
      "o ice",
      "s h",
      "t end",
      "v ol",
      "y ard",
      "Ġs it",
      "Ġs ing",
      "Ġs ea",
      "Ġm erc",
      "Ġw ant",
      "in ess",
      "re at",
      "Ġb ir",
      "Ġb ook",
      "Ġb ite",
      "Ġb os",
      "Ġb ones",
      "Ġf ea",
      "Ġf ull",
      "Ġf eel",
      "Ġl ament",
      "Ġd en",
      "Ġd ru",
      "Ġd ark",
      "Ġd oom",
      "ve nt",
      "ĠT ake",
      "an y",
      "Ġp en",
      "Ġp ast",
      "Ġo pp",
      "ĠA ll",
      "Ġg u",
      "Ġbe se",
      "et ch",
      "Ġme ans",
      "ĠS h",
      "ĠC ounty",
      "Ġu nder",
      "Ġan cient",
      "Ġre p",
      "Ġsh ort",
      "Ġsw ord",
      "gu es",
      "Ġtime s",
      "Ġen em",
      "Ġwo es",
      "Ġwo ful",
      "ĠU p",
      "Ġhour s",
      "Ġstr an",
      "Ġchurch yard",
      "Ġconf ess",
      "Ġmer ry",
      "fect ion",
      "Ġmurd er",
      "ĠWatch man",
      "Ġsil ver",
      "Ġcoun sel",
      "ban ished",
      "ĠDe ath",
      "Ġcloud s",
      "Ġbos om",
      "Ġfea st",
      "b er",
      "c le",
      "d y",
      "f ied",
      "j ure",
      "l s",
      "l ic",
      "n k",
      "s and",
      "t w",
      "u ck",
      "v ance",
      "Ġ K",
      "Ġt end",
      "Ġa cc",
      "Ġs ince",
      "Ġs ick",
      "Ġs aint",
      "Ġm ight",
      "Ġw ret",
      "re r",
      "Ġb it",
      "Ġb urn",
      "Ġf ing",
      "Ġf ound",
      "Ġf les",
      "Ġl ess",
      "it iz",
      "Ġd ri",
      "Ġd ag",
      "or se",
      "Ġn ear",
      "Ġc are",
      "Ġc old",
      "Ġc orse",
      "ĠT oo",
      "ĠT ill",
      "ot ion",
      "Ġh it",
      "Ġh ot",
      "Ġh ome",
      "Ġp at",
      "Ġp al",
      "Ġp il",
      "Ġo ver",
      "ĠA r",
      "Ġg ir",
      "Ġbe l",
      "Ġbe cause",
      "Ġbe hold",
      "en ch",
      "at is",
      "ĠR et",
      "Ġin de",
      "Ġme asure",
      "Ġthou sand",
      "ĠB en",
      "Ġst ri",
      "Ġst ars",
      "ĠL ord",
      "ĠH is",
      "Ġso le",
      "Ġthy self",
      "ent s",
      "Ġre m",
      "Ġsh ows",
      "Ġsu b",
      "Ġsu pp",
      "Ġsu dd",
      "Ġne xt",
      "Ġpr ove",
      "Ġv ile",
      "ĠD raw",
      "Ġcan st",
      "row n",
      "Ġr an",
      "ort al",
      "Ġmar k",
      "Ġcon s",
      "Ġj est",
      "ĠY et",
      "Ġor cha",
      "Ġqu ick",
      "Ġlo ving",
      "Ġlo vers",
      "Ġpre t",
      "Ġlook s",
      "Ġgentle men",
      "Ġword s",
      "Ġen ough",
      "Ġbr other",
      "Ġex ile",
      "Ġex cu",
      "em per",
      "pe ct",
      "Ġblood y",
      "Ġaf f",
      "Ġaf ter",
      "Ġfear ful",
      "ĠSt ay",
      "Ġmove d",
      "ĠAl ack",
      "Ġreme mber",
      "Ġjo int",
      "Ġwed d",
      "Ġthr ough",
      "Ġhone st",
      "Ġbese ech",
      "Ġtend er",
      "Ġfles h",
      "itiz en",
      "Ġdag ger",
      "Ġinde ed",
      "Ġsudd en",
      "Ġorcha rd",
      "' ?",
      "A H",
      "A s",
      "A y",
      "B R",
      "a f",
      "b s",
      "b t",
      "c her",
      "e ous",
      "g r",
      "g ing",
      "i or",
      "i ence",
      "n es",
      "u ment",
      "u mp",
      "v ious",
      "w ay",
      "Ġ ent",
      "Ġ imp",
      "Ġt ale",
      "Ġa ge",
      "Ġa ct",
      "Ġs k",
      "Ġs le",
      "Ġs igh",
      "Ġs atis",
      "Ġm atch",
      "Ġm atter",
      "Ġw oo",
      "Ġw ound",
      "Ġw ish",
      "Ġw hile",
      "ha l",
      "re n",
      "Ġb ow",
      "is ter",
      "Ġf ar",
      "Ġf ourt",
      "Ġf urt",
      "Ġf etch",
      "Ġl ad",
      "Ġl am",
      "Ġl ark",
      "Ġd ou",
      "Ġd ance",
      "Ġth ree",
      "Ġth umb",
      "Ġn ay",
      "Ġc ut",
      "Ġc ri",
      "Ġc ho",
      "Ġc ry",
      "Ġc ords",
      "on s",
      "ar ing",
      "me nd",
      "ĠT urn",
      "Ġh urt",
      "Ġp ower",
      "st ant",
      "ĠA BR",
      "Ġg all",
      "Ġg ro",
      "Ġg oose",
      "Ġof t",
      "at t",
      "ĠW as",
      "ut e",
      "Ġha ng",
      "Ġha ving",
      "ĠM ore",
      "ĠS u",
      "ĠS w",
      "ĠS ir",
      "ĠS aint",
      "ĠC h",
      "ĠC an",
      "oo f",
      "ĠO ur",
      "Ġde p",
      "Ġde ep",
      "Ġit self",
      "ĠL ook",
      "ĠL ike",
      "ĠH ence",
      "ĠP r",
      "ĠThe se",
      "ra h",
      "Ġre t",
      "Ġre ason",
      "Ġsh ri",
      "Ġsu m",
      "Ġdo g",
      "Ġno ise",
      "Ġse en",
      "Ġv al",
      "Ġv oice",
      "Ġsp oke",
      "Ġat tend",
      "Ġkn e",
      "ĠD id",
      "us h",
      "Ġr ose",
      "Ġho ar",
      "Ġho ld",
      "Ġcon sent",
      "Ġpo int",
      "ng th",
      "ink s",
      "Ġdid st",
      "Ġpre sent",
      "Ġen vious",
      "Ġbre ast",
      "Ġbre ak",
      "ĠCapulet s",
      "Ġcou nt",
      "Ġspeak s",
      "Ġaw hile",
      "Ġfo e",
      "Ġstre ngth",
      "Ġmaid s",
      "Ġmaid en",
      "Ġfriend s",
      "Ġbri ght",
      "Ġwh om",
      "Ġunt o",
      "Ġcomp any",
      "ĠII I",
      "Ġcheek s",
      "Ġmon ument",
      "Ġmus ic",
      "Ġnat ure",
      "Ġbanish ment",
      "Ġlear n",
      "Ġyond er",
      "ĠFr om",
      "Ġflow ers",
      "vol io",
      "Ġenem y",
      "Ġbit ter",
      "Ġgir l",
      "ĠBen volio",
      "AH AM",
      "As ide",
      "Ġsle w",
      "Ġfourt een",
      "ĠABR AHAM",
      "! '",
      "! --",
      "; '",
      "? '",
      "C T",
      "H N",
      "O HN",
      "W ith",
      "a ir",
      "c l",
      "c on",
      "c han",
      "c hed",
      "c ious",
      "d om",
      "g ri",
      "h ood",
      "k en",
      "m n",
      "m it",
      "m ing",
      "n er",
      "n ers",
      "r ing",
      "s se",
      "t ime",
      "w o",
      "Ġ im",
      "Ġt er",
      "Ġt ear",
      "Ġt ort",
      "he n",
      "he ad",
      "Ġs en",
      "Ġs ent",
      "Ġs ide",
      "Ġs imp",
      "Ġm et",
      "Ġm od",
      "Ġm orrow",
      "Ġm ask",
      "Ġm oon",
      "Ġw a",
      "Ġw ake",
      "Ġw ings",
      "Ġw alk",
      "Ġw ild",
      "re ady",
      "Ġb us",
      "Ġb raw",
      "Ġb rief",
      "Ġb les",
      "Ġb ade",
      "ll ing",
      "Ġf e",
      "Ġf ore",
      "Ġf ive",
      "Ġf ine",
      "er t",
      "er ing",
      "Ġl ent",
      "Ġl aid",
      "ĠI V",
      "it ion",
      "Ġd an",
      "Ġd am",
      "Ġd iv",
      "Ġth us",
      "Ġth ings",
      "Ġn ine",
      "Ġc our",
      "Ġc ru",
      "Ġc row",
      "Ġc ond",
      "Ġc ause",
      "ar ri",
      "ve d",
      "ĠT wo",
      "Ġto ward",
      "Ġhe ll",
      "Ġhe ir",
      "an ish",
      "st ance",
      "ĠA pothecary",
      "ĠA CT",
      "Ġg i",
      "Ġg ho",
      "Ġg ave",
      "Ġbe at",
      "at hed",
      "ur y",
      "ut h",
      "Ġha re",
      "Ġha ir",
      "ĠM ay",
      "ir it",
      "ir on",
      "ir tu",
      "Ġe ither",
      "Ġe ase",
      "Ġe mp",
      "ĠB l",
      "ĠC ould",
      "ĠC all",
      "ĠC up",
      "ĠC itizen",
      "ĠO ut",
      "ed s",
      "Ġfor m",
      "Ġfor sw",
      "Ġst ate",
      "Ġli ving",
      "Ġde f",
      "Ġde w",
      "ĠJ OHN",
      "al th",
      "ĠH el",
      "ĠP o",
      "ĠP age",
      "ĠE re",
      "Ġso ft",
      "Ġher self",
      "Ġas leep",
      "Ġsha pe",
      "Ġan ger",
      "ru st",
      "if t",
      "if ul",
      "Ġre ad",
      "Ġsh ut",
      "Ġyour self",
      "ant s",
      "Ġse cond",
      "Ġfr ay",
      "Ġpr om",
      "Ġpr oud",
      "Ġv is",
      "Ġv ow",
      "Ġsp irit",
      "Ġsw ords",
      "Ġkn ave",
      "Ġkn ock",
      "ie ce",
      "Ġr ing",
      "Ġr ough",
      "Ġho pe",
      "ime ly",
      "Ġtoo k",
      "Ġcon jure",
      "ak en",
      "fe it",
      "Ġsee k",
      "Ġwor s",
      "Ġqu oth",
      "Ġal ready",
      "Ġsl ow",
      "Ġsl ay",
      "Ġsl aughter",
      "Ġgive s",
      "ire s",
      "Ġpre pare",
      "Ġtru st",
      "Ġhouse s",
      "ite ous",
      "Ġwhere fore",
      "Ġex ce",
      "Ġru de",
      "ick le",
      "ĠMonta gues",
      "ro ss",
      "Ġsc orn",
      "Ġch ide",
      "ici ans",
      "Ġcha r",
      "ĠAn on",
      "Ġwr itt",
      "Ġwit s",
      "Ġwit hal",
      "Ġlong er",
      "Ġhad st",
      "ĠSe e",
      "Ġjoy ful",
      "Ġhead s",
      "Ġletter s",
      "Ġdream s",
      "Ġle ad",
      "Ġbeg g",
      "Ġbeg in",
      "Ġtr uth",
      "ust om",
      "Ġsm ile",
      "ĠAl as",
      "Ġunt imely",
      "Ġwind ow",
      "Ġchan ge",
      "Ġhu m",
      "Ġmus icians",
      "Ġhonour able",
      "Ġple asure",
      "Ġdel ight",
      "Ġfell ow",
      "Ġgra ce",
      "ĠSp eak",
      "Ġlament able",
      "vent ure",
      "Ġgu est",
      "ĠUp on",
      "Ġstran ge",
      "Ġfing ers",
      "Ġpil gri",
      "Ġrem ove",
      "Ġquick ly",
      "Ġpret ty",
      "Ġexcu se",
      "Ġwedd ing",
      "Ġsigh s",
      "Ġsatis fied",
      "Ġfurt her",
      "Ġlad ies",
      "ĠSw eet",
      "Ġret urn",
      "Ġshri ft",
      "With in",
      "Ġbles sed",
      "Ġgho st",
      "ĠCup id",
      "Ġwritt en",
      "G E",
      "G od",
      "a ith",
      "c o",
      "c hes",
      "c ret",
      "d er",
      "d en",
      "d ge",
      "g ment",
      "g led",
      "h n",
      "i p",
      "i x",
      "l ight",
      "l come",
      "m ost",
      "n ock",
      "n ament",
      "o es",
      "o hn",
      "p l",
      "p ier",
      "r oud",
      "s p",
      "s ome",
      "t ing",
      "u me",
      "u ght",
      "u ff",
      "w om",
      "Ġ ur",
      "Ġ enter",
      "Ġ iron",
      "Ġt y",
      "Ġt ou",
      "Ġt ea",
      "Ġt ast",
      "he re",
      "Ġa y",
      "Ġs me",
      "Ġs our",
      "Ġs ell",
      "Ġs ear",
      "Ġs ake",
      "Ġs ail",
      "ou nt",
      "Ġm ur",
      "Ġm ouse",
      "Ġm ortal",
      "Ġw is",
      "Ġw ond",
      "Ġw ench",
      "in ed",
      "re w",
      "re ad",
      "Ġb le",
      "Ġb ad",
      "Ġb row",
      "Ġb are",
      "Ġb orn",
      "Ġb aw",
      "Ġb ig",
      "Ġb old",
      "Ġb less",
      "Ġb ud",
      "is ses",
      "ll en",
      "Ġf at",
      "Ġf al",
      "Ġf ain",
      "Ġf aint",
      "Ġf oul",
      "Ġf ier",
      "Ġf ought",
      "er n",
      "Ġl od",
      "Ġl au",
      "Ġl end",
      "Ġd r",
      "Ġd ove",
      "Ġd ra",
      "Ġd ry",
      "Ġd ate",
      "Ġd ies",
      "Ġd well",
      "or s",
      "Ġth ither",
      "Ġth rust",
      "Ġc ir",
      "Ġc al",
      "Ġc urse",
      "Ġc ure",
      "Ġc rave",
      "Ġc ity",
      "Ġc urt",
      "Ġc iv",
      "Ġc arri",
      "ve s",
      "me d",
      "ĠT ut",
      "ĠT ell",
      "Ġto wn",
      "se em",
      "Ġh ie",
      "Ġp ar",
      "Ġp ay",
      "Ġp ain",
      "Ġp ers",
      "Ġp iteous",
      "Ġo dd",
      "Ġo cc",
      "Ġo pen",
      "ĠA d",
      "ĠA m",
      "ĠA way",
      "Ġbe ast",
      "ome n",
      "Ġin ter",
      "ĠW ould",
      "ĠW el",
      "ĠW ilt",
      "Ġme ant",
      "ce ive",
      "Ġha r",
      "Ġha rd",
      "Ġha lf",
      "ĠS us",
      "ĠS ince",
      "ir d",
      "Ġnot e",
      "Ġe ast",
      "ĠC ame",
      "ill s",
      "ed ing",
      "ri ght",
      "Ġfor b",
      "Ġst ar",
      "Ġst ain",
      "Ġst eel",
      "Ġst umb",
      "Ġst eal",
      "ĠF aith",
      "ĠN e",
      "ĠJ ohn",
      "ĠL ady",
      "Ġwe ar",
      "Ġwe ap",
      "Ġwe ak",
      "Ġwe lcome",
      "ĠH a",
      "ĠH ad",
      "ĠH ie",
      "ĠP eace",
      "ĠE ither",
      "Ġso ld",
      "Ġher s",
      "ul y",
      "Ġas s",
      "Ġfa st",
      "Ġfa ult",
      "ra ce",
      "ĠTh us",
      "ĠG entle",
      "ear t",
      "Ġre ady",
      "Ġsu re",
      "Ġyour s",
      "Ġse cret",
      "Ġfr own",
      "Ġv ain",
      "Ġv io",
      "Ġv irtu",
      "Ġsp ite",
      "Ġsp eed",
      "Ġgo ss",
      "Ġkn ife",
      "ie u",
      "ie ve",
      "Ġam ong",
      "th ing",
      "Ġr oom",
      "ound s",
      "Ġbl ind",
      "ate ly",
      "Ġor nament",
      "Ġsome thing",
      "Ġwas h",
      "Ġknow n",
      "Ġpo st",
      "ose d",
      "Ġwor k",
      "Ġwor m",
      "Ġwor n",
      "Ġqu iet",
      "Ġal ack",
      "Ġal ong",
      "Ġun l",
      "Ġun cle",
      "Ġlo ver",
      "Ġlo ss",
      "Ġcom ing",
      "Ġcom mend",
      "Ġpre s",
      "Ġpre cious",
      "Ġab ro",
      "Ġpl a",
      "Ġgentle wom",
      "Ġlight ning",
      "ĠPA GE",
      "Ġen c",
      "Ġbr o",
      "Ġheart s",
      "Ġmis er",
      "Ġex tre",
      "Ġcou nter",
      "ĠServ ing",
      "Ġheaven s",
      "os ition",
      "Ġname s",
      "ĠWith in",
      "ment s",
      "ĠYou ng",
      "Ġsc ar",
      "Ġstre w",
      "Ġwr ong",
      "ĠWho se",
      "Ġaf fection",
      "ven ge",
      "Ġgre y",
      "Ġgre en",
      "Ġdes p",
      "Ġkeep s",
      "Ġri ght",
      "ĠSt and",
      "Ġfall s",
      "Ġneed s",
      "Ġle ft",
      "Ġche er",
      "Ġhate ful",
      "Ġwar m",
      "Ġbet w",
      "Ġint ents",
      "Ġweep s",
      "Ġkins men",
      "ign ior",
      "Ġsm all",
      "Ġco z",
      "Ġco ver",
      "Ġra ge",
      "Ġad vance",
      "Ġchan ce",
      "ĠUn less",
      "Ġbur y",
      "Ġbur ied",
      "Ġdare s",
      "Ġpri ck",
      "Ġve ins",
      "Ġsad ness",
      "Ġmin ute",
      "Ġpur p",
      "Ġcont r",
      "Ġstreet s",
      "az e",
      "Ġwom b",
      "Ġwise ly",
      "ress ion",
      "Ġgl ad",
      "Ġres pect",
      "Ġgold en",
      "Ġbride gr",
      "eal ous",
      "Ġmerc y",
      "Ġbir d",
      "Ġbir th",
      "Ġdru nk",
      "ĠK nock",
      "Ġwret ched",
      "Ġpat ience",
      "Ġpal m",
      "ĠAr t",
      "Ġstri ke",
      "Ġsole mn",
      "Ġcons ort",
      "Ġlam b",
      "Ġdou bt",
      "ĠSu ch",
      "Ġdep art",
      "Ġsum m",
      "Ġtort ure",
      "Ġsen se",
      "Ġdam ned",
      "Ġcour se",
      "Ġcru el",
      "Ġcond u",
      "Ġemp ty",
      "Ġforsw orn",
      "Ġhum our",
      "Ġghost ly",
      "Ġtou ch",
      "Ġmur de",
      "Ġwis dom",
      "Ġfat al",
      "Ġlau gh",
      "Ġciv il",
      "ĠWel come",
      "Ġvio l",
      "Ġgentlewom an",
      "Ġbridegr oom",
      "ĠKnock ing",
      ". --",
      ": '",
      "H eart",
      "T ybalt",
      "a cc",
      "b l",
      "c he",
      "c is",
      "c ing",
      "c ure",
      "d al",
      "d raw",
      "e c",
      "e an",
      "e red",
      "f ice",
      "g g",
      "g es",
      "g ain",
      "h ouse",
      "i ly",
      "i ver",
      "i vers",
      "i xt",
      "j ur",
      "k er",
      "l er",
      "l os",
      "l ike",
      "m as",
      "m ine",
      "m ity",
      "m ary",
      "m ade",
      "m ortal",
      "n ow",
      "n oon",
      "o ot",
      "o ly",
      "o oth",
      "p an",
      "p ing",
      "r p",
      "r ay",
      "r atch",
      "s u",
      "s ha",
      "s ion",
      "u y",
      "u se",
      "u le",
      "u ne",
      "v y",
      "v our",
      "v ive",
      "v ish",
      "w or",
      "w ear",
      "Ġ i",
      "Ġ ut",
      "Ġ id",
      "Ġ ord",
      "Ġ venge",
      "Ġt a",
      "Ġt id",
      "Ġt ail",
      "Ġt emper",
      "he nd",
      "he st",
      "Ġa h",
      "Ġa p",
      "Ġa dd",
      "Ġa pt",
      "Ġa pothecary",
      "Ġs ave",
      "Ġs au",
      "Ġs erv",
      "Ġs ought",
      "ou nter",
      "ou nce",
      "ou ble",
      "Ġm ood",
      "Ġm att",
      "Ġw at",
      "Ġw ide",
      "Ġw ag",
      "Ġw akes",
      "Ġw aking",
      "Ġw omen",
      "in ing",
      "in ner",
      "re st",
      "re hend",
      "Ġb orrow",
      "Ġb ark",
      "Ġb urd",
      "Ġb rows",
      "Ġb uy",
      "nd red",
      "Ġf is",
      "Ġf it",
      "Ġf an",
      "Ġf ly",
      "Ġf ood",
      "Ġf el",
      "Ġf est",
      "Ġf ond",
      "Ġf ree",
      "Ġf ury",
      "Ġf ickle",
      "er al",
      "Ġl an",
      "Ġl ain",
      "Ġl ust",
      "it ch",
      "it ed",
      "Ġd ire",
      "Ġd inner",
      "or ous",
      "or ses",
      "Ġn u",
      "Ġc r",
      "Ġc le",
      "Ġc ea",
      "Ġc ook",
      "Ġc ock",
      "Ġc up",
      "Ġc ross",
      "on y",
      "on ounce",
      "me s",
      "Ġto ad",
      "Ġto ld",
      "Ġto il",
      "se qu",
      "Ġhe el",
      "Ġhe alth",
      "ot e",
      "ot t",
      "ot est",
      "Ġh id",
      "Ġh ood",
      "Ġh ire",
      "an g",
      "an cis",
      "Ġp ow",
      "Ġp hi",
      "Ġp ure",
      "Ġp ack",
      "Ġp are",
      "Ġp ub",
      "Ġp iece",
      "Ġy ear",
      "st al",
      "st rel",
      "ĠA re",
      "Ġg ot",
      "Ġg ru",
      "Ġg rie",
      "Ġg rown",
      "Ġg aze",
      "ing ale",
      "Ġbe h",
      "Ġbe gu",
      "Ġbe ats",
      "ow ard",
      "at ing",
      "Ġin f",
      "Ġin v",
      "Ġin con",
      "ĠW ed",
      "ĠW ife",
      "Ġme d",
      "Ġme at",
      "ur b",
      "ur al",
      "ut s",
      "ce d",
      "ce nd",
      "ce it",
      "ce ss",
      "ad d",
      "ad s",
      "ad venture",
      "Ġha ll",
      "ĠM is",
      "ĠM ake",
      "ĠM ost",
      "ĠM ab",
      "ĠS c",
      "ĠS ignior",
      "es u",
      "es y",
      "Ġe f",
      "ĠC on",
      "Ġwith draw",
      "nt o",
      "nt s",
      "ove d",
      "Ġst e",
      "Ġst o",
      "Ġst art",
      "Ġst ru",
      "Ġst if",
      "Ġst op",
      "Ġst int",
      "ĠF ind",
      "ĠF ie",
      "Ġli ck",
      "Ġli ber",
      "Ġli ken",
      "ĠN ight",
      "Ġde al",
      "ĠJ ack",
      "ĠJ ule",
      "ĠJ esu",
      "ĠL ove",
      "ĠL am",
      "ĠH ast",
      "ĠH ap",
      "ĠH ark",
      "ĠH ang",
      "ĠP ut",
      "ĠE ven",
      "ĠE lse",
      "ain ing",
      "Ġlove d",
      "Ġas ide",
      "one st",
      "Ġfa il",
      "Ġfa ire",
      "ver n",
      "as h",
      "as ion",
      "ent io",
      "Ġk isses",
      "Ġan on",
      "Ġan ge",
      "ĠTh ings",
      "ĠG re",
      "ĠG et",
      "ath some",
      "if y",
      "Ġre ve",
      "Ġsh roud",
      "Ġsu it",
      "Ġsu ck",
      "Ġse p",
      "Ġse ver",
      "Ġse lf",
      "Ġpr ison",
      "Ġpr oof",
      "Ġpr onounce",
      "Ġpr otest",
      "out h",
      "Ġv ie",
      "Ġsp ent",
      "Ġnight ingale",
      "Ġsw orn",
      "Ġsw ift",
      "Ġgo d",
      "Ġgo ing",
      "Ġgo es",
      "all ow",
      "ie st",
      "ie ld",
      "ĠD ost",
      "Ġam b",
      "th y",
      "and er",
      "Ġr ouse",
      "Ġr ather",
      "Ġsir rah",
      "Ġho l",
      "Ġho llow",
      "Ġbl ows",
      "Ġbl ush",
      "Ġday light",
      "Ġwould st",
      "Ġj ud",
      "Ġj ealous",
      "Ġsome time",
      "Ġdead ly",
      "est y",
      "Ġknow s",
      "hy me",
      "Ġmay st",
      "Ġpo sse",
      "Ġsee ming",
      "Ġwor se",
      "Ġdis h",
      "Ġal as",
      "Ġal oof",
      "Ġal most",
      "Ġsl ave",
      "Ġsl ander",
      "Ġun s",
      "Ġun ha",
      "Ġun acc",
      "Ġlo st",
      "Ġlo gs",
      "Ġlo athsome",
      "Ġcom m",
      "Ġpre vent",
      "Ġpl uck",
      "Ġsweet est",
      "Ġbr ain",
      "Ġmis adventure",
      "Ġwho le",
      "Ġex p",
      "Ġex chan",
      "em pt",
      "Ġback ward",
      "Ġcl im",
      "ĠWith out",
      "ĠBe cause",
      "Ġru led",
      "ĠU nto",
      "ro ach",
      "Ġsc ratch",
      "Ġch oose",
      "Ġstand s",
      "aint ed",
      "ici ous",
      "ĠWe re",
      "tre e",
      "Ġgre et",
      "Ġdes ire",
      "Ġchild ren",
      "op hy",
      "Ġpray er",
      "urs u",
      "Ġneed y",
      "Ġbri dal",
      "Ġbeaut ies",
      "Ġfaith ful",
      "Ġwh ite",
      "Ġweep ing",
      "ĠMusici ans",
      "Ġtr uly",
      "Ġtr ouble",
      "Ġend ure",
      "Ġco ll",
      "Ġstr ong",
      "Ġra ise",
      "Ġra pier",
      "Ġad ieu",
      "Ġquar re",
      "ail ing",
      "for ce",
      "Ġwall s",
      "Ġcourt eous",
      "Ġcourt esy",
      "Ġcomp l",
      "be y",
      "Ġtre mb",
      "Ġturn s",
      "Ġpass ion",
      "Ġdisc ords",
      "Ġapp rehend",
      "Ġapp roach",
      "Ġmon th",
      "Ġmurd ers",
      "Ġhu ndred",
      "Ġthought s",
      "Ġreme dy",
      "Ġpro v",
      "Ġjo in",
      "Ġthank s",
      "Ġclose d",
      "Ġve x",
      "Ġair y",
      "Ġmin strel",
      "Ġhone y",
      "Ġple ase",
      "Ġkind red",
      "Ġtri ump",
      "Ġwom an",
      "Ġwast e",
      "Ġfell ows",
      "Ġfie nd",
      "Ġfie ld",
      "Ġdu g",
      "Ġyouth ful",
      "eth inks",
      "ĠFr ancis",
      "Ġdev il",
      "Ġdev ise",
      "Ġdist urb",
      "Ġwant on",
      "reat ure",
      "Ġden y",
      "Ġopp ression",
      "ĠSh ould",
      "Ġconfess ion",
      "tw as",
      "Ġwret ch",
      "Ġpat ient",
      "Ġbel ieve",
      "ĠRet ires",
      "Ġsub stance",
      "Ġsupp er",
      "Ġsupp osed",
      "Ġaff ord",
      "Ġafter noon",
      "Ġjoint s",
      "nes day",
      "Ġent reat",
      "Ġimp ort",
      "ren ch",
      "Ġcri es",
      "Ġgro an",
      "ĠSir rah",
      "ĠCh urch",
      "ĠHence for",
      "Ġval our",
      "Ġkne w",
      "Ġkne es",
      "Ġrose mary",
      "Ġpresent ly",
      "Ġmaiden head",
      "Ġim mortal",
      "Ġsimp le",
      "Ġmod esty",
      "Ġwa x",
      "Ġbus iness",
      "Ġgi ving",
      "ĠHel p",
      "ĠPo or",
      "Ġvis or",
      "Ġchar ge",
      "Ġbegg ar",
      "Ġguest s",
      "Ġpilgri m",
      "Ġur ged",
      "Ġtea ch",
      "Ġtast e",
      "Ġsear ch",
      "Ġbaw d",
      "Ġfal se",
      "Ġfier y",
      "Ġlend s",
      "Ġdr ink",
      "Ġcal m",
      "Ġcurse d",
      "Ġcrave s",
      "Ġcurt ains",
      "seem ing",
      "Ġocc asion",
      "ĠSus an",
      "ĠGentle men",
      "Ġvirtu ous",
      "Ġunl uck",
      "Ġabro ad",
      "Ġpla gue",
      "Ġenc ounter",
      "Ġbro ad",
      "Ġcounter feit",
      "ĠServing men",
      "Ġaffection s",
      "Ġbetw een",
      "Ġadvance d",
      "Ġpurp ose",
      "Ġcontr ary",
      "Ġsolemn ity",
      "Ġsumm er",
      "Ġcondu ct",
      "Ġmurde rer",
      "Ġviol ent",
      "los ophy",
      "Ġtid ings",
      "Ġmatt ock",
      "Ġwat er",
      "Ġwag on",
      "Ġburd en",
      "Ġcea se",
      "Ġpow der",
      "Ġphi losophy",
      "Ġpub lic",
      "Ġincon stant",
      "ĠWed nesday",
      "Ġstru ck",
      "Ġliber ty",
      "Ġliken ess",
      "ĠLam mas",
      "Ġvie w",
      "Ġjud gment",
      "Ġposse ss",
      "Ġunacc ustom",
      "Ġexchan ge",
      "; --",
      "H old",
      "O GUE",
      "Q u",
      "R omeo",
      "R OL",
      "T o",
      "Y ea",
      "Z ounds",
      "a e",
      "a it",
      "a ld",
      "b ut",
      "b es",
      "b our",
      "b ell",
      "b ea",
      "b oy",
      "b sequ",
      "c i",
      "c y",
      "c re",
      "c qu",
      "c ry",
      "c io",
      "c reature",
      "d ows",
      "e x",
      "e y",
      "e ve",
      "e ct",
      "f an",
      "f ull",
      "f oot",
      "g et",
      "g le",
      "g ive",
      "g ion",
      "g age",
      "g oose",
      "g ory",
      "h rew",
      "i a",
      "i an",
      "i ant",
      "i ers",
      "i ps",
      "i ance",
      "i pt",
      "i ately",
      "j oice",
      "j ect",
      "k s",
      "k ing",
      "k es",
      "l o",
      "l ot",
      "l en",
      "l et",
      "l ast",
      "l ers",
      "l ies",
      "m al",
      "m ore",
      "m us",
      "m aid",
      "m stance",
      "n y",
      "n at",
      "n own",
      "n cher",
      "o ard",
      "o gue",
      "o ps",
      "o pe",
      "o bed",
      "p le",
      "p ised",
      "r or",
      "r an",
      "r ine",
      "r ance",
      "r ough",
      "s il",
      "s ong",
      "s ire",
      "s ick",
      "s ol",
      "s hes",
      "s imp",
      "s hip",
      "t s",
      "t ain",
      "t ic",
      "t iest",
      "t empt",
      "u e",
      "v ate",
      "v ail",
      "v ior",
      "w ood",
      "w art",
      "w hich",
      "w ise",
      "w ife",
      "z en",
      "z el",
      "Ġ &",
      "Ġ rave",
      "Ġ Qu",
      "Ġt e",
      "Ġt it",
      "Ġt en",
      "Ġt ut",
      "Ġt ed",
      "Ġt ra",
      "Ġt row",
      "Ġt ry",
      "Ġt eet",
      "Ġt able",
      "Ġt aken",
      "he l",
      "he art",
      "Ġa nt",
      "Ġa qu",
      "Ġa fore",
      "Ġa ble",
      "Ġa men",
      "Ġa ught",
      "Ġs y",
      "Ġs ur",
      "Ġs ch",
      "Ġs al",
      "Ġs hi",
      "Ġs ie",
      "Ġs alt",
      "Ġs ort",
      "Ġs ink",
      "Ġs ings",
      "Ġs ign",
      "Ġs ac",
      "Ġs ister",
      "Ġs now",
      "Ġm or",
      "Ġm ut",
      "Ġm art",
      "Ġm aking",
      "Ġm otion",
      "Ġm outh",
      "Ġm ethinks",
      "Ġw in",
      "Ġw ent",
      "Ġw are",
      "Ġw ink",
      "Ġw hip",
      "Ġw ert",
      "Ġw aken",
      "in y",
      "ha nt",
      "ha vior",
      "re nt",
      "re sh",
      "Ġb o",
      "Ġb one",
      "Ġb ore",
      "Ġb ra",
      "Ġb and",
      "Ġb rave",
      "Ġb ag",
      "Ġb ier",
      "Ġb ask",
      "Ġb ott",
      "nd one",
      "nd eed",
      "nd sire",
      "is ure",
      "is ion",
      "is ans",
      "ll s",
      "ll or",
      "ll ent",
      "Ġf le",
      "Ġf our",
      "Ġf ru",
      "Ġf ant",
      "Ġf ish",
      "Ġf led",
      "Ġf un",
      "Ġf right",
      "Ġf resh",
      "er ately",
      "Ġl en",
      "Ġl our",
      "Ġl ant",
      "Ġl est",
      "Ġl ose",
      "Ġl ab",
      "Ġl az",
      "ĠI m",
      "ĠI ndeed",
      "it s",
      "it ing",
      "it ies",
      "it iful",
      "it ae",
      "Ġd et",
      "Ġd im",
      "Ġd if",
      "Ġd ro",
      "Ġd aught",
      "Ġd ull",
      "Ġd eter",
      "Ġd ign",
      "Ġd un",
      "or m",
      "or us",
      "Ġth in",
      "Ġth ir",
      "Ġth ri",
      "Ġth reat",
      "Ġn im",
      "Ġn ice",
      "Ġn ought",
      "Ġn iece",
      "Ġc at",
      "Ġc ur",
      "Ġc her",
      "Ġc ra",
      "Ġc ast",
      "Ġc and",
      "Ġc ave",
      "Ġc atch",
      "Ġc orn",
      "Ġc un",
      "Ġc arry",
      "Ġc ats",
      "Ġc itizen",
      "on ing",
      "ar ch",
      "ve th",
      "me mber",
      "ĠT or",
      "ĠT ru",
      "ĠT aking",
      "ĠT ush",
      "ĠT oward",
      "Ġto ps",
      "se t",
      "se mb",
      "se nce",
      "se llor",
      "Ġhe ld",
      "Ġhe ed",
      "Ġhe ard",
      "ot ing",
      "ot pan",
      "Ġh ild",
      "Ġh orses",
      "an ity",
      "Ġp e",
      "Ġp ul",
      "Ġp ra",
      "Ġp ath",
      "Ġp ort",
      "Ġp ap",
      "Ġp est",
      "Ġp age",
      "Ġp ity",
      "Ġp un",
      "Ġp ains",
      "Ġp otion",
      "Ġp ump",
      "Ġp air",
      "Ġp ursu",
      "Ġo w",
      "Ġo pe",
      "Ġo bsequ",
      "Ġy on",
      "st e",
      "st r",
      "st ain",
      "st one",
      "st ru",
      "ĠA b",
      "ĠA f",
      "ĠA men",
      "Ġg en",
      "Ġg ear",
      "Ġg row",
      "Ġg rant",
      "Ġg rows",
      "Ġbe am",
      "Ġbe th",
      "Ġbe ars",
      "Ġbe come",
      "Ġbe sh",
      "en e",
      "en us",
      "et r",
      "et s",
      "at he",
      "at es",
      "at ed",
      "ay ing",
      "ĠR ight",
      "Ġin qu",
      "Ġin fection",
      "Ġin stru",
      "le st",
      "le ven",
      "ĠW h",
      "Ġme nd",
      "Ġme sse",
      "ur vy",
      "Ġis su",
      "ut ch",
      "ut ion",
      "ut ation",
      "ch re",
      "ce ase",
      "ad o",
      "ad ing",
      "ad ise",
      "Ġha p",
      "Ġha zel",
      "ĠM ond",
      "ĠM ust",
      "ĠM ask",
      "ĠM any",
      "ĠM ean",
      "ĠS ay",
      "ĠS end",
      "ĠS leep",
      "ld er",
      "ir t",
      "es hrew",
      "es pised",
      "Ġe gg",
      "Ġe leven",
      "ĠB id",
      "ĠB ear",
      "ĠB ea",
      "ĠB oth",
      "ĠB el",
      "ĠB eshrew",
      "ĠC he",
      "ĠC om",
      "ĠO pen",
      "ed ic",
      "ri ck",
      "ri fice",
      "Ġfor s",
      "Ġfor ty",
      "Ġfor ward",
      "Ġfor feit",
      "Ġst ore",
      "Ġst out",
      "Ġst ep",
      "Ġst ick",
      "Ġst ol",
      "Ġst ab",
      "Ġst ones",
      "Ġst ory",
      "Ġst ony",
      "Ġst orm",
      "ĠF ear",
      "ĠF all",
      "ĠF ull",
      "ĠF rench",
      "Ġli qu",
      "Ġli mb",
      "Ġli very",
      "Ġli mit",
      "Ġde are",
      "Ġde af",
      "Ġde bt",
      "Ġde ceive",
      "Ġde mes",
      "Ġu ndone",
      "ĠJ ust",
      "ĠL o",
      "ĠL u",
      "ĠL ea",
      "ĠL ive",
      "ĠL est",
      "ĠL ies",
      "ĠL aying",
      "id d",
      "id ow",
      "id ence",
      "Ġwe st",
      "Ġwe ek",
      "Ġwe aring",
      "Ġwe eds",
      "Ġwe alth",
      "our ses",
      "ĠH all",
      "ĠH oly",
      "ĠH onest",
      "ĠP l",
      "ĠP ro",
      "ĠP ret",
      "ĠP ardon",
      "ĠP ROL",
      "ĠP otpan",
      "ĠP rick",
      "ĠE n",
      "ĠE ver",
      "Ġso ar",
      "Ġher bs",
      "Ġher ald",
      "Ġlove s",
      "Ġlove st",
      "Ġlove ly",
      "ul ar",
      "ul chre",
      "ck s",
      "ck oning",
      "Ġas hes",
      "Ġfa vour",
      "ver se",
      "ver ty",
      "Ġsha re",
      "Ġsha rp",
      "Ġsha dows",
      "as hing",
      "ell ist",
      "ra ge",
      "ĠTh ree",
      "ĠTh ird",
      "ĠTh rough",
      "ĠG rief",
      "hi pp",
      "Ġshe d",
      "Ġbut t",
      "ru pt",
      "Ġre f",
      "Ġre ce",
      "Ġre ign",
      "Ġre vive",
      "Ġre joice",
      "Ġre ckoning",
      "Ġsh ot",
      "Ġsh rie",
      "Ġsh own",
      "Ġsh op",
      "Ġsh oes",
      "Ġsu sp",
      "Ġsu llen",
      "Ġdo or",
      "Ġdo ors",
      "ake st",
      "Ġno se",
      "Ġman age",
      "Ġman ner",
      "Ġman ners",
      "Ġman gled",
      "Ġman sion",
      "Ġne st",
      "Ġne ck",
      "Ġne igh",
      "Ġse al",
      "Ġse est",
      "Ġpr or",
      "Ġpr os",
      "Ġpr ol",
      "Ġpr op",
      "Ġmu ff",
      "Ġv ice",
      "Ġv ol",
      "Ġv ial",
      "Ġv itae",
      "Ġv anity",
      "Ġsp y",
      "Ġsp le",
      "Ġsp id",
      "Ġsp ake",
      "Ġsp ort",
      "Ġsp urs",
      "Ġsp ade",
      "Ġsp ring",
      "Ġnight ly",
      "Ġwhe nce",
      "Ġar ray",
      "Ġhere ab",
      "Ġhere af",
      "Ġkn ight",
      "ĠD ry",
      "ĠD ies",
      "ĠD espised",
      "am our",
      "am ine",
      "us ion",
      "Ġam az",
      "Ġam orous",
      "Ġcan ker",
      "Ġr at",
      "Ġr ate",
      "Ġr ite",
      "Ġr hyme",
      "ĠEx amine",
      "Ġthen ce",
      "gu ed",
      "gu ish",
      "ic t",
      "ic ion",
      "Ġho p",
      "Ġour s",
      "Ġbl ow",
      "Ġbl ade",
      "ort ion",
      "ap e",
      "ak s",
      "ak er",
      "ak ed",
      "Ġj our",
      "Ġj au",
      "Ġj ust",
      "ĠY es",
      "ĠY ea",
      "Ġout rage",
      "pp y",
      "el s",
      "el ve",
      "est ion",
      "est able",
      "Ġfair ly",
      "Ġfair ies",
      "fe rent",
      "Ġmad man",
      "ong ing",
      "Ġpo verty",
      "Ġsee m",
      "Ġsee ing",
      "Ġsee ms",
      "ng er",
      "Ġwor ms",
      "Ġdis mal",
      "Ġdis obed",
      "Ġqu ite",
      "Ġqu ench",
      "Ġqu estion",
      "Ġal oud",
      "Ġal ike",
      "Ġag o",
      "Ġun b",
      "Ġun f",
      "Ġun k",
      "Ġun w",
      "Ġun less",
      "Ġlo athed",
      "Ġlo cks",
      "ĠThou gh",
      "ire d",
      "Ġcom b",
      "Ġpre ss",
      "Ġpre sence",
      "ct ion",
      "Ġtru dge",
      "Ġab h",
      "Ġab u",
      "Ġpl ain",
      "Ġlike wise",
      "Ġlight s",
      "Ġen j",
      "Ġen mity",
      "Ġhouse hold",
      "Ġear l",
      "ĠCap el",
      "Ġbr ings",
      "Ġbr ains",
      "Ġbr oke",
      "Ġbre athed",
      "ilt y",
      "Ġtw ain",
      "Ġtw elve",
      "Ġmis s",
      "Ġmis t",
      "Ġmis fort",
      "Ġnurse d",
      "Ġcall ed",
      "em ned",
      "os sed",
      "Ġcl ub",
      "Ġnew ly",
      "Ġpart s",
      "Ġpart isans",
      "ĠSo ft",
      "ĠBe g",
      "Ġru shes",
      "Ġfl ies",
      "Ġfl atter",
      "Ġdear ly",
      "Ġeyes ight",
      "ne ath",
      "per ous",
      "ĠU nder",
      "Ġaw ake",
      "Ġfo ll",
      "ĠV al",
      "ĠV enus",
      "Ġstay s",
      "Ġsc ene",
      "Ġsc ape",
      "Ġhear ing",
      "ĠNo ise",
      "ile d",
      "Ġcha llen",
      "Ġstre t",
      "Ġstre aks",
      "Ġfind s",
      "ock s",
      "Ġwr ite",
      "Ġwr ought",
      "Ġdre w",
      "Ġdes cend",
      "ĠSe al",
      "Ġjoy s",
      "Ġpray ers",
      "ag ate",
      "Ġlea p",
      "itt ing",
      "Ġgrave s",
      "ĠMus ic",
      "ĠSt ill",
      "ĠSt op",
      "Ġdream t",
      "sw eet",
      "ull s",
      "Ġsound ing",
      "Ġsound ly",
      "Ġle g",
      "Ġle gs",
      "Ġle isure",
      "Ġbeg an",
      "Ġbeg ins",
      "Ġbeaut eous",
      "Ġmother s",
      "Ġwh ore",
      "Ġwh ist",
      "Ġhel ps",
      "Ġint end",
      "Ġtr oth",
      "Ġsoul s",
      "Ġend ed",
      "Ġsm oke",
      "Ġsm ooth",
      "iss ion",
      "Ġoff er",
      "Ġoff ice",
      "Ġstr ain",
      "Ġra ised",
      "Ġad venture",
      "Ġcould st",
      "Ġgrief s",
      "Ġbest ri",
      "ĠSome time",
      "Ġever last",
      "Ġleave s",
      "iv al",
      "Ġtor ment",
      "Ġtor ches",
      "Ġsleep s",
      "Ġwind s",
      "Ġwind ows",
      "Ġwatch ing",
      "Ġshame st",
      "Ġconf usion",
      "Ġcomp are",
      "be at",
      "be seeming",
      "Ġtre ncher",
      "Ġser p",
      "Ġmer it",
      "Ġmer ri",
      "Ġway s",
      "Ġdraw n",
      "Ġchan ged",
      "Ġheav iness",
      "Ġper force",
      "Ġpass ing",
      "Ġpass ado",
      "Ġye w",
      "Ġforg ot",
      "Ġdisc o",
      "Ġdisc ourses",
      "Ġapp ear",
      "Ġbur nt",
      "Ġfool s",
      "Ġfool ish",
      "Ġcame st",
      "Ġhu ng",
      "Ġpri ce",
      "Ġpri de",
      "Ġpri vate",
      "Ġpro cure",
      "Ġthank ful",
      "Ġplay s",
      "Ġmistre s",
      "cu mstance",
      "ub ber",
      "Ġve stal",
      "Ġsil k",
      "Ġsorrow s",
      "Ġthr one",
      "Ġnat ive",
      "Ġnat ural",
      "Ġpur ged",
      "Ġmeet ing",
      "Ġdel ay",
      "Ġdel iver",
      "Ġcont in",
      "Ġcont ent",
      "Ġcoun sellor",
      "Ġtri m",
      "Ġwom anish",
      "Ġfight s",
      "Ġlear ned",
      "Ġdu mp",
      "Ġdu ellist",
      "ĠAt tend",
      "Ġgra ndsire",
      "ation s",
      "Ġdev otion",
      "Ġask ed",
      "Ġres ol",
      "Ġro aring",
      "Ġro bes",
      "Ġdisp le",
      "Ġdisp osition",
      "Ġdist ill",
      "Ġdist emper",
      "Ġserve d",
      "Ġsit s",
      "Ġsing le",
      "Ġsing ular",
      "Ġmerc iful",
      "Ġwant ing",
      "Ġdru gs",
      "Ġdoom s",
      "Ġpen s",
      "Ġpen ny",
      "Ġgu ilty",
      "ĠSh ow",
      "Ġunder neath",
      "Ġrep ent",
      "Ġenem ies",
      "Ġconfess or",
      "Ġfeast ing",
      "jure d",
      "lic t",
      "vance s",
      "Ġacc id",
      "Ġacc ount",
      "Ġsaint s",
      "Ġmight st",
      "Ġburn ing",
      "Ġfing er",
      "Ġdri ft",
      "Ġpal ace",
      "Ġpil ot",
      "Ġover th",
      "ĠAr ise",
      "Ġstri fe",
      "Ġrem ain",
      "Ġsub ject",
[...]
